{
  "version": "1.0",
  "truncation": null,
  "padding": null,
  "added_tokens": [
    {
      "id": 0,
      "content": "<|pad|>",
      "single_word": false,
      "lstrip": false,
      "rstrip": false,
      "normalized": false,
      "special": true
    },
    {
      "id": 1,
      "content": "<|bos|>",
      "single_word": false,
      "lstrip": false,
      "rstrip": false,
      "normalized": false,
      "special": true
    },
    {
      "id": 2,
      "content": "<|eos|>",
      "single_word": false,
      "lstrip": false,
      "rstrip": false,
      "normalized": false,
      "special": true
    },
    {
      "id": 3,
      "content": "<|unk|>",
      "single_word": false,
      "lstrip": false,
      "rstrip": false,
      "normalized": false,
      "special": true
    },
    {
      "id": 4,
      "content": "<|system|>",
      "single_word": false,
      "lstrip": false,
      "rstrip": false,
      "normalized": false,
      "special": true
    },
    {
      "id": 5,
      "content": "<|user|>",
      "single_word": false,
      "lstrip": false,
      "rstrip": false,
      "normalized": false,
      "special": true
    },
    {
      "id": 6,
      "content": "<|assistant|>",
      "single_word": false,
      "lstrip": false,
      "rstrip": false,
      "normalized": false,
      "special": true
    },
    {
      "id": 7,
      "content": "<|end|>",
      "single_word": false,
      "lstrip": false,
      "rstrip": false,
      "normalized": false,
      "special": true
    }
  ],
  "normalizer": null,
  "pre_tokenizer": {
    "type": "ByteLevel",
    "add_prefix_space": false,
    "trim_offsets": true,
    "use_regex": true
  },
  "post_processor": {
    "type": "TemplateProcessing",
    "single": [
      {
        "SpecialToken": {
          "id": "<|bos|>",
          "type_id": 0
        }
      },
      {
        "Sequence": {
          "id": "A",
          "type_id": 0
        }
      },
      {
        "SpecialToken": {
          "id": "<|eos|>",
          "type_id": 0
        }
      }
    ],
    "pair": [
      {
        "Sequence": {
          "id": "A",
          "type_id": 0
        }
      },
      {
        "Sequence": {
          "id": "B",
          "type_id": 1
        }
      }
    ],
    "special_tokens": {
      "<|bos|>": {
        "id": "<|bos|>",
        "ids": [
          1
        ],
        "tokens": [
          "<|bos|>"
        ]
      },
      "<|eos|>": {
        "id": "<|eos|>",
        "ids": [
          2
        ],
        "tokens": [
          "<|eos|>"
        ]
      }
    }
  },
  "decoder": {
    "type": "ByteLevel",
    "add_prefix_space": true,
    "trim_offsets": true,
    "use_regex": true
  },
  "model": {
    "type": "BPE",
    "dropout": null,
    "unk_token": "<|unk|>",
    "continuing_subword_prefix": null,
    "end_of_word_suffix": null,
    "fuse_unk": false,
    "byte_fallback": false,
    "ignore_merges": false,
    "vocab": {
      "<|pad|>": 0,
      "<|bos|>": 1,
      "<|eos|>": 2,
      "<|unk|>": 3,
      "<|system|>": 4,
      "<|user|>": 5,
      "<|assistant|>": 6,
      "<|end|>": 7,
      "!": 8,
      "\"": 9,
      "#": 10,
      "$": 11,
      "%": 12,
      "&": 13,
      "'": 14,
      "(": 15,
      ")": 16,
      "*": 17,
      "+": 18,
      ",": 19,
      "-": 20,
      ".": 21,
      "/": 22,
      "0": 23,
      "1": 24,
      "2": 25,
      "3": 26,
      "4": 27,
      "5": 28,
      "6": 29,
      "7": 30,
      "8": 31,
      "9": 32,
      ":": 33,
      ";": 34,
      "<": 35,
      "=": 36,
      ">": 37,
      "?": 38,
      "@": 39,
      "A": 40,
      "B": 41,
      "C": 42,
      "D": 43,
      "E": 44,
      "F": 45,
      "G": 46,
      "H": 47,
      "I": 48,
      "J": 49,
      "K": 50,
      "L": 51,
      "M": 52,
      "N": 53,
      "O": 54,
      "P": 55,
      "Q": 56,
      "R": 57,
      "S": 58,
      "T": 59,
      "U": 60,
      "V": 61,
      "W": 62,
      "X": 63,
      "Y": 64,
      "Z": 65,
      "[": 66,
      "\\": 67,
      "]": 68,
      "^": 69,
      "_": 70,
      "`": 71,
      "a": 72,
      "b": 73,
      "c": 74,
      "d": 75,
      "e": 76,
      "f": 77,
      "g": 78,
      "h": 79,
      "i": 80,
      "j": 81,
      "k": 82,
      "l": 83,
      "m": 84,
      "n": 85,
      "o": 86,
      "p": 87,
      "q": 88,
      "r": 89,
      "s": 90,
      "t": 91,
      "u": 92,
      "v": 93,
      "w": 94,
      "x": 95,
      "y": 96,
      "z": 97,
      "{": 98,
      "|": 99,
      "}": 100,
      "~": 101,
      "¡": 102,
      "¢": 103,
      "£": 104,
      "¤": 105,
      "¥": 106,
      "¦": 107,
      "§": 108,
      "¨": 109,
      "©": 110,
      "ª": 111,
      "«": 112,
      "¬": 113,
      "®": 114,
      "¯": 115,
      "°": 116,
      "±": 117,
      "²": 118,
      "³": 119,
      "´": 120,
      "µ": 121,
      "¶": 122,
      "·": 123,
      "¸": 124,
      "¹": 125,
      "º": 126,
      "»": 127,
      "¼": 128,
      "½": 129,
      "¾": 130,
      "¿": 131,
      "Â": 132,
      "Ã": 133,
      "Ä": 134,
      "Å": 135,
      "Æ": 136,
      "Ç": 137,
      "È": 138,
      "É": 139,
      "Ê": 140,
      "Ë": 141,
      "Ì": 142,
      "Í": 143,
      "Î": 144,
      "Ï": 145,
      "Ð": 146,
      "Ñ": 147,
      "Ò": 148,
      "Ó": 149,
      "Ô": 150,
      "Õ": 151,
      "Ö": 152,
      "×": 153,
      "Ø": 154,
      "Ù": 155,
      "Ú": 156,
      "Û": 157,
      "Ü": 158,
      "Ý": 159,
      "Þ": 160,
      "à": 161,
      "á": 162,
      "â": 163,
      "ã": 164,
      "ä": 165,
      "å": 166,
      "æ": 167,
      "ç": 168,
      "è": 169,
      "é": 170,
      "ê": 171,
      "ë": 172,
      "ì": 173,
      "í": 174,
      "î": 175,
      "ï": 176,
      "ð": 177,
      "ā": 178,
      "ĕ": 179,
      "Ġ": 180,
      "Ģ": 181,
      "ģ": 182,
      "Ĥ": 183,
      "ĥ": 184,
      "Ħ": 185,
      "ħ": 186,
      "Ĩ": 187,
      "ĩ": 188,
      "Ī": 189,
      "ī": 190,
      "Ĭ": 191,
      "ĭ": 192,
      "Į": 193,
      "į": 194,
      "İ": 195,
      "ı": 196,
      "Ĳ": 197,
      "ĳ": 198,
      "Ĵ": 199,
      "ĵ": 200,
      "Ķ": 201,
      "ķ": 202,
      "ĸ": 203,
      "Ĺ": 204,
      "ĺ": 205,
      "Ļ": 206,
      "ļ": 207,
      "Ľ": 208,
      "ľ": 209,
      "Ŀ": 210,
      "ŀ": 211,
      "Ł": 212,
      "ł": 213,
      "Ń": 214,
      "Ä±": 215,
      "ar": 216,
      "an": 217,
      "er": 218,
      "Ã¼": 219,
      "in": 220,
      "ÅŁ": 221,
      "Ġb": 222,
      "en": 223,
      "il": 224,
      "Ä±n": 225,
      "ir": 226,
      "Ã§": 227,
      "ÄŁ": 228,
      "al": 229,
      "Ġk": 230,
      "ak": 231,
      "lar": 232,
      "Ġy": 233,
      "Ġd": 234,
      "Ġs": 235,
      "Ã¶": 236,
      "el": 237,
      "ay": 238,
      "ek": 239,
      "Ġg": 240,
      "Ġo": 241,
      "et": 242,
      "Ġv": 243,
      "as": 244,
      "Ġt": 245,
      "es": 246,
      "ler": 247,
      "da": 248,
      "on": 249,
      "un": 250,
      "at": 251,
      "am": 252,
      "ĠA": 253,
      "de": 254,
      "ik": 255,
      "ĠB": 256,
      "is": 257,
      "Ġve": 258,
      "or": 259,
      "iy": 260,
      "ĠK": 261,
      "Ä±r": 262,
      "ur": 263,
      "Ä±l": 264,
      "Ġm": 265,
      "im": 266,
      "ĠS": 267,
      "ad": 268,
      "aÅŁ": 269,
      "ul": 270,
      "Ġ1": 271,
      "em": 272,
      "Ġbir": 273,
      "Ġh": 274,
      "ĠT": 275,
      "iz": 276,
      "ed": 277,
      "ĠM": 278,
      "ol": 279,
      "Ã¼r": 280,
      "Ã¼n": 281,
      "Ġol": 282,
      "ĠD": 283,
      "Ġ2": 284,
      "it": 285,
      "Ä°": 286,
      "iÅŁ": 287,
      "Ä±ÅŁ": 288,
      "Ä±k": 289,
      "az": 290,
      "ĠÃ§": 291,
      "ap": 292,
      "Ġil": 293,
      "Ġf": 294,
      "le": 295,
      "ah": 296,
      "Ä±m": 297,
      "aÄŁ": 298,
      "Ä±nda": 299,
      "larÄ±": 300,
      "lan": 301,
      "ĠE": 302,
      "ey": 303,
      "um": 304,
      "ĠG": 305,
      "ĠH": 306,
      "li": 307,
      "ab": 308,
      "ĠÄ°": 309,
      "Ġp": 310,
      "ĠÃ¶": 311,
      "Ġi": 312,
      "ev": 313,
      "Ġ(": 314,
      "lÄ±": 315,
      "'d": 316,
      "ĠY": 317,
      "Ġ20": 318,
      "ĠP": 319,
      "Ġal": 320,
      "ĠÃ": 321,
      "us": 322,
      "ya": 323,
      "dan": 324,
      "Ã¼z": 325,
      "leri": 326,
      "inde": 327,
      "ĠC": 328,
      "Ġ19": 329,
      "Ã¶r": 330,
      "ut": 331,
      "Ä±z": 332,
      "esi": 333,
      "ĠF": 334,
      "asÄ±": 335,
      "ine": 336,
      "ac": 337,
      "di": 338,
      "ĠÅŁ": 339,
      "ĠiÃ§": 340,
      "ĠO": 341,
      "la": 342,
      "eri": 343,
      "ok": 344,
      "Ġyap": 345,
      "af": 346,
      "tÄ±": 347,
      "du": 348,
      "ist": 349,
      "cu": 350,
      "Ġde": 351,
      "ini": 352,
      "oÄŁ": 353,
      "Ġar": 354,
      "Ã¼k": 355,
      "larÄ±n": 356,
      "Ã¼m": 357,
      "dÄ±": 358,
      "den": 359,
      "om": 360,
      "ez": 361,
      "ec": 362,
      "Ã¼l": 363,
      "ti": 364,
      "ĠR": 365,
      "Ġn": 366,
      "ilm": 367,
      "ĠL": 368,
      "ĠN": 369,
      "st": 370,
      "uz": 371,
      "av": 372,
      "lu": 373,
      "ĠyÄ±l": 374,
      "aÃ§": 375,
      "Ġile": 376,
      "Ġtar": 377,
      "âĢ": 378,
      "ro": 379,
      "uÅŁ": 380,
      "alar": 381,
      "larak": 382,
      "Ã¶n": 383,
      "ĠiÃ§in": 384,
      "Ä±s": 385,
      "ĠbaÅŁ": 386,
      "dir": 387,
      "tir": 388,
      "Ġr": 389,
      "ĠgÃ¶r": 390,
      "inin": 391,
      "Ġolarak": 392,
      "ÄŁi": 393,
      "Ġson": 394,
      "Ä±ndan": 395,
      "eÃ§": 396,
      "Ä±nÄ±": 397,
      "iler": 398,
      "dÄ±r": 399,
      "mak": 400,
      "ÄŁÄ±": 401,
      "iye": 402,
      "ayn": 403,
      "lik": 404,
      "Ġ\"": 405,
      "Ġbu": 406,
      "Ã¼rk": 407,
      "Åŀ": 408,
      "Ġ-": 409,
      "uy": 410,
      "tÄ±r": 411,
      "Ġan": 412,
      "Ä±na": 413,
      "bol": 414,
      "Ġkar": 415,
      "Ġed": 416,
      "len": 417,
      "Ġc": 418,
      "Ġ201": 419,
      "ĠbaÄŁ": 420,
      "Ġet": 421,
      "ip": 422,
      "lam": 423,
      "eÅŁ": 424,
      "ic": 425,
      "Ã¼y": 426,
      "ih": 427,
      "Ä±y": 428,
      "ma": 429,
      "eler": 430,
      "os": 431,
      "ib": 432,
      "man": 433,
      "Ġda": 434,
      "op": 435,
      "ĠTÃ¼rk": 436,
      "Ġz": 437,
      "alÄ±": 438,
      "eb": 439,
      "ta": 440,
      "ark": 441,
      "Ġin": 442,
      "Ġbul": 443,
      "Ã§a": 444,
      "Ġgel": 445,
      "aki": 446,
      "ekt": 447,
      "utbol": 448,
      "ĠÅŀ": 449,
      "ĠV": 450,
      "adÄ±": 451,
      "ce": 452,
      "isi": 453,
      "Ġoldu": 454,
      "ĠÃ¶n": 455,
      "ĠÃĩ": 456,
      "yon": 457,
      "Ġyer": 458,
      "ra": 459,
      "mÄ±ÅŁ": 460,
      "anÄ±": 461,
      "00": 462,
      "eh": 463,
      "Ġolan": 464,
      "Ġfutbol": 465,
      "lÄ±k": 466,
      "Ġver": 467,
      "Ã¼ÅŁ": 468,
      "te": 469,
      "Ã¶y": 470,
      "aynak": 471,
      "yun": 472,
      "ilir": 473,
      "Ġen": 474,
      "iyor": 475,
      "erk": 476,
      "ĠAn": 477,
      "ĠÃĸ": 478,
      "aya": 479,
      "up": 480,
      "ca": 481,
      "ans": 482,
      "ĠU": 483,
      "Ġkul": 484,
      "Ġkon": 485,
      "eki": 486,
      "Ã¶l": 487,
      "Ġ3": 488,
      "ĠdoÄŁ": 489,
      "ĠKaynak": 490,
      "ers": 491,
      "..": 492,
      "Ġbil": 493,
      "Ġkur": 494,
      "let": 495,
      "aha": 496,
      "ĠKaynakÃ§a": 497,
      "Ġbulun": 498,
      "ĠBu": 499,
      "lem": 500,
      "uk": 501,
      "leÅŁ": 502,
      "ayÄ±": 503,
      "Ġad": 504,
      "eni": 505,
      "Ġfutbolcu": 506,
      "ter": 507,
      "Ġkad": 508,
      "Ġtaraf": 509,
      "ot": 510,
      "Ġger": 511,
      "Ä±nÄ±n": 512,
      "masÄ±": 513,
      "iv": 514,
      "eÄŁ": 515,
      "ĠI": 516,
      "asÄ±nda": 517,
      "iÅŁtir": 518,
      "ĠJ": 519,
      "Ġis": 520,
      "Ġ200": 521,
      "ĠAl": 522,
      "ĠiÅŁ": 523,
      "edi": 524,
      "ĠAr": 525,
      "ili": 526,
      "Ġor": 527,
      "ayan": 528,
      "Ġkullan": 529,
      "cÄ±": 530,
      "tad": 531,
      "art": 532,
      "Ã¶z": 533,
      "tur": 534,
      "inden": 535,
      "ada": 536,
      "ĠyÄ±lÄ±nda": 537,
      "nin": 538,
      "ĠsÃ¼r": 539,
      "Ġbel": 540,
      "ĠtarafÄ±ndan": 541,
      "ĠaÃ§": 542,
      "iniz": 543,
      "Ġay": 544,
      "ĠyaÅŁ": 545,
      "ilen": 546,
      "ĠgÃ¼n": 547,
      "ĠdeÄŁ": 548,
      "Ġyar": 549,
      "lantÄ±": 550,
      "ÄŁu": 551,
      "alÄ±ÅŁ": 552,
      "20": 553,
      "Ġkal": 554,
      "ĠW": 555,
      "ede": 556,
      "ĠgeÃ§": 557,
      "tan": 558,
      "ĠÃ§Ä±k": 559,
      "acak": 560,
      "ig": 561,
      "'t": 562,
      "ĠÃ§ok": 563,
      "Ġtak": 564,
      "edir": 565,
      "id": 566,
      "19": 567,
      "tadÄ±r": 568,
      "ibi": 569,
      "eli": 570,
      "ĠÃľ": 571,
      "unu": 572,
      "Ġdaha": 573,
      "san": 574,
      "ĠBir": 575,
      "Ġ|": 576,
      "ĠDÄ±ÅŁ": 577,
      "Ä±lan": 578,
      "ĠÃ§alÄ±ÅŁ": 579,
      "ĠÃ¼z": 580,
      "),": 581,
      "âĢĻ": 582,
      "aman": 583,
      "ep": 584,
      "if": 585,
      "unda": 586,
      "Ġoyun": 587,
      "ub": 588,
      "ĠbaÄŁlantÄ±": 589,
      "ĠAm": 590,
      "Ġik": 591,
      "me": 592,
      "ov": 593,
      "Ġtarih": 594,
      "Ġolm": 595,
      "nÄ±n": 596,
      "Ġsonra": 597,
      "ĠyÃ¶n": 598,
      "iyet": 599,
      "ĠÃ¼zer": 600,
      "re": 601,
      "Ġyaz": 602,
      "Ġl": 603,
      "eleri": 604,
      "ÄŁr": 605,
      "ĠbaÄŁlantÄ±lar": 606,
      "Ġsah": 607,
      "Ġ4": 608,
      "Ã¼yÃ¼k": 609,
      "ĠBaÅŁ": 610,
      "met": 611,
      "eden": 612,
      "Ġist": 613,
      "iyle": 614,
      "ci": 615,
      "Ġel": 616,
      "daki": 617,
      "ki": 618,
      "laÅŁ": 619,
      "he": 620,
      "cak": 621,
      "por": 622,
      "est": 623,
      "Ġfilm": 624,
      "ara": 625,
      "Ä±yor": 626,
      "end": 627,
      "Ġuy": 628,
      "ef": 629,
      "dÃ¼r": 630,
      "ildi": 631,
      "Ġtek": 632,
      "lÃ¼": 633,
      "od": 634,
      "men": 635,
      "ĠTÃ¼rkiye": 636,
      "Ġ5": 637,
      "erik": 638,
      "ĠfutbolcularÄ±": 639,
      "ĠâĢ": 640,
      "imiz": 641,
      "Ġek": 642,
      "ĠdÃ¶n": 643,
      "ĠbÃ¶l": 644,
      "Ġ199": 645,
      "Ã¼s": 646,
      "Ġpro": 647,
      "Ġkat": 648,
      "Ġgibi": 649,
      "umlu": 650,
      "Ã¼t": 651,
      "mÄ±ÅŁtÄ±r": 652,
      "Ġilk": 653,
      "Ã¼Ã§": 654,
      "ĠAy": 655,
      "ken": 656,
      "iyat": 657,
      "gi": 658,
      "ĠyÃ¼z": 659,
      "esinde": 660,
      "Ġvar": 661,
      "erkez": 662,
      "Ġdev": 663,
      "ĠÄ°n": 664,
      "Ġise": 665,
      "uÅŁtur": 666,
      "esine": 667,
      "arÄ±": 668,
      "ĠgÃ¶": 669,
      "ĠEr": 670,
      "eye": 671,
      "deki": 672,
      "ĠÃ¶z": 673,
      "ing": 674,
      "ama": 675,
      "tr": 676,
      "Ġalan": 677,
      "kan": 678,
      "Ġkadar": 679,
      "ecek": 680,
      "mek": 681,
      "Ã§e": 682,
      "ĠsaÄŁ": 683,
      "Ġat": 684,
      "ade": 685,
      "Ġtop": 686,
      "aÄŁÄ±": 687,
      "Ġmil": 688,
      "ĠkarÅŁ": 689,
      "gr": 690,
      "oy": 691,
      "lerin": 692,
      "arak": 693,
      "ayÄ±n": 694,
      "Ġuz": 695,
      "maktadÄ±r": 696,
      "ĠAmerik": 697,
      "ĠZ": 698,
      "rÄ±": 699,
      "ran": 700,
      "aber": 701,
      "ektedir": 702,
      "abilir": 703,
      "Ä±sÄ±": 704,
      "Ġak": 705,
      "ĠbaÄŁlÄ±": 706,
      "Ã¼c": 707,
      "Ä±mÄ±": 708,
      "Ġzaman": 709,
      "Ġon": 710,
      "iyon": 711,
      "sel": 712,
      "Ġgen": 713,
      "usu": 714,
      "Ġes": 715,
      "Ä±ldÄ±": 716,
      "alarÄ±": 717,
      "Ġher": 718,
      "ĠÃ¼r": 719,
      "asyon": 720,
      "Ġsay": 721,
      "Ġ18": 722,
      "imi": 723,
      "Ä±lÄ±": 724,
      "ch": 725,
      "Ä±mÄ±z": 726,
      "Ä±nÄ±z": 727,
      "ne": 728,
      "ob": 729,
      "ladÄ±": 730,
      "ĠdoÄŁumlu": 731,
      "tal": 732,
      "Ġyak": 733,
      "ehir": 734,
      "Ġkaz": 735,
      "lara": 736,
      "Ġhay": 737,
      "sa": 738,
      "Ġhal": 739,
      "ĠkiÅŁ": 740,
      "gil": 741,
      "rup": 742,
      "Ġ6": 743,
      "Ġas": 744,
      "Ã¼f": 745,
      "unun": 746,
      "amp": 747,
      "Ġkap": 748,
      "ĠbÃ¼yÃ¼k": 749,
      "uÃ§": 750,
      "olo": 751,
      "Ġinsan": 752,
      "ĠÄ°s": 753,
      "larÄ±nÄ±": 754,
      "Ġ198": 755,
      "larda": 756,
      "iÄŁ": 757,
      "ent": 758,
      "liÄŁi": 759,
      "Ġyeni": 760,
      "ĠÃ¶ÄŁr": 761,
      "lÄ±ÄŁÄ±": 762,
      "Ã¢": 763,
      "ĠÄ°st": 764,
      "oz": 765,
      "ĠÄ°l": 766,
      "han": 767,
      "Ġgerek": 768,
      "ĠdÃ¼ÅŁ": 769,
      "Ã§ek": 770,
      "ĠAv": 771,
      "ĠÅŁek": 772,
      "ĠdÃ¼z": 773,
      "Ġveya": 774,
      "ĠEn": 775,
      "Ä±yla": 776,
      "dur": 777,
      "ĠsÄ±r": 778,
      "ĠarasÄ±nda": 779,
      "ĠKar": 780,
      "miÅŁ": 781,
      "ĠseÃ§": 782,
      "ag": 783,
      "erek": 784,
      "itesi": 785,
      "ri": 786,
      "ley": 787,
      "Ġbelir": 788,
      "ivers": 789,
      "Ġkurul": 790,
      "ĠgÃ¶re": 791,
      "lat": 792,
      "ster": 793,
      "arkÄ±": 794,
      "ileri": 795,
      "Ġsahip": 796,
      "mas": 797,
      "ĠGÃ¼n": 798,
      "Ġev": 799,
      "Ġdur": 800,
      "Ġa": 801,
      "ket": 802,
      "bul": 803,
      "Ġbak": 804,
      "ĠyÃ¼k": 805,
      "Ġmerkez": 806,
      "all": 807,
      "Ã®": 808,
      "ĠaÃ§Ä±k": 809,
      "lerini": 810,
      "ĠAk": 811,
      "ĠilÃ§": 812,
      "dÃ¼": 813,
      "Ġ7": 814,
      "Ġpar": 815,
      "ĠBel": 816,
      "Ġsor": 817,
      "Ġyan": 818,
      "Ġalt": 819,
      "Ġgir": 820,
      "rans": 821,
      "ĠÃ¶zel": 822,
      "iyas": 823,
      "Ġkazan": 824,
      "Ġhak": 825,
      "anbul": 826,
      "larÄ±nda": 827,
      "raf": 828,
      "Ġyol": 829,
      "Ã§i": 830,
      "istan": 831,
      "...": 832,
      "ĠdoÄŁumlular": 833,
      "Ã¼nya": 834,
      "Ġuyg": 835,
      "der": 836,
      "yn": 837,
      "ĠgÃ¶rev": 838,
      "ĠGen": 839,
      "etim": 840,
      "Ġ197": 841,
      "kanÄ±": 842,
      "una": 843,
      "Ġ10": 844,
      "ĠOr": 845,
      "ĠgÃ¶ster": 846,
      "Ã¼p": 847,
      "Ġmah": 848,
      "uh": 849,
      "ard": 850,
      "alÄ±k": 851,
      "Ġtem": 852,
      "ocu": 853,
      "ĠKon": 854,
      "Ġ'": 855,
      "tÃ¼r": 856,
      "elik": 857,
      "ĠkÃ¶y": 858,
      "ĠtakÄ±m": 859,
      "Ġden": 860,
      "anÄ±n": 861,
      "rÄ±ca": 862,
      "ĠÃĸz": 863,
      "ĠÄ°stanbul": 864,
      "nivers": 865,
      "Ġtam": 866,
      "Ġ8": 867,
      "mektedir": 868,
      "dÃ¼l": 869,
      "ĠÃ¶l": 870,
      "orum": 871,
      "ĠolduÄŁ": 872,
      "ĠolduÄŁu": 873,
      "Ã¼nde": 874,
      "Ġsan": 875,
      "ĠbÃ¶lg": 876,
      "iyi": 877,
      "ĠyaptÄ±": 878,
      "Ġul": 879,
      "oloj": 880,
      "ĠDev": 881,
      "Ġetti": 882,
      "Ġbulunan": 883,
      "ĠÃ¶nem": 884,
      "kin": 885,
      "malar": 886,
      "aat": 887,
      "uv": 888,
      "ĠÃ§ek": 889,
      "Ġser": 890,
      "Ġ0": 891,
      "ten": 892,
      "si": 893,
      "iÃ§": 894,
      "Ġkay": 895,
      "ĠgerÃ§ek": 896,
      "ĠÃ¼l": 897,
      "bet": 898,
      "ĠKur": 899,
      "ĠTar": 900,
      "ĠdÃ¶nem": 901,
      "Ġiki": 902,
      "ĠâĢĵ": 903,
      "Ġbirlik": 904,
      "izmet": 905,
      "eg": 906,
      "iÄŁer": 907,
      "Ġort": 908,
      "lere": 909,
      "lerde": 910,
      "lay": 911,
      "Ġilg": 912,
      "atÄ±": 913,
      "ÄŁini": 914,
      "hur": 915,
      "ant": 916,
      "maya": 917,
      "ide": 918,
      "ika": 919,
      "Ġneden": 920,
      "ast": 921,
      "aret": 922,
      "ye": 923,
      "azÄ±": 924,
      "Ä±ndaki": 925,
      "ĠeÄŁ": 926,
      "Ġder": 927,
      "avaÅŁ": 928,
      "ust": 929,
      "ort": 930,
      "nde": 931,
      "ĠÃ¶ÄŁren": 932,
      "ĠdÃ¼zen": 933,
      "Ġ9": 934,
      "mi": 935,
      "leÅŁtir": 936,
      "Ã¼st": 937,
      "ĠCum": 938,
      "ĠEk": 939,
      "larÄ±nÄ±n": 940,
      "Ġbas": 941,
      "Ġok": 942,
      "eyi": 943,
      "tar": 944,
      "ĠyapÄ±l": 945,
      "enin": 946,
      "yla": 947,
      "Ġ196": 948,
      "ĠÅŁekil": 949,
      "ÄŁÄ±nÄ±": 950,
      "ĠÃľnivers": 951,
      "ĠtaÅŁ": 952,
      "ĠÄ°ngil": 953,
      "sek": 954,
      "cel": 955,
      "ĠaldÄ±": 956,
      "Ġtel": 957,
      "Ġhar": 958,
      "Ġ15": 959,
      "yÄ±l": 960,
      "Ãľ": 961,
      "ka": 962,
      "ĠPro": 963,
      "ulu": 964,
      "Ġdevam": 965,
      "adan": 966,
      "itim": 967,
      "Ġhem": 968,
      "ĠBak": 969,
      "se": 970,
      "na": 971,
      "og": 972,
      "Ġoyuncu": 973,
      "Ġayn": 974,
      "Ġ202": 975,
      "Ġoyn": 976,
      "miÅŁtir": 977,
      "ret": 978,
      "ĠYaÅŁ": 979,
      "Ġsev": 980,
      "siniz": 981,
      "orm": 982,
      "ĠCh": 983,
      "mesi": 984,
      "ĠÃ¼lk": 985,
      "van": 986,
      "nda": 987,
      "istem": 988,
      "ĠSon": 989,
      "Ġkend": 990,
      "larÄ±na": 991,
      "Ġbirlikte": 992,
      "Ġkm": 993,
      "Ġof": 994,
      "Ġdiz": 995,
      "Ã¼v": 996,
      "Ġdurum": 997,
      "ĠsÃ¶y": 998,
      "Ġfark": 999,
      "ĠaÅŁ": 1000,
      "ĠkÄ±s": 1001,
      "ĠtÃ¼r": 1002,
      "ezon": 1003,
      "ru": 1004,
      "ĠyayÄ±n": 1005,
      "Ġhizmet": 1006,
      "ĠtÃ¼m": 1007,
      "Ġbin": 1008,
      "asÄ±na": 1009,
      "bÃ¼m": 1010,
      "ĠÃ¼y": 1011,
      "Ã¼dÃ¼r": 1012,
      "ebilir": 1013,
      "ocuk": 1014,
      "ge": 1015,
      "ĠLig": 1016,
      "etir": 1017,
      "Ġmad": 1018,
      "Ġit": 1019,
      "ĠÅŁarkÄ±": 1020,
      "Ġtan": 1021,
      "ilik": 1022,
      "Ġsat": 1023,
      "yal": 1024,
      "ĠBil": 1025,
      "ĠMil": 1026,
      "ĠÅŁekilde": 1027,
      "ĠkadÄ±n": 1028,
      "inci": 1029,
      "acaÄŁ": 1030,
      "uyor": 1031,
      "200": 1032,
      "Ġam": 1033,
      "ektÃ¶r": 1034,
      "lerinde": 1035,
      "ize": 1036,
      "tÃ¼": 1037,
      "ampiyon": 1038,
      "tu": 1039,
      "ĠalÄ±n": 1040,
      "ĠÃ¶nemli": 1041,
      "ĠPar": 1042,
      "Ġim": 1043,
      "201": 1044,
      "ĠDevlet": 1045,
      "Ġiyi": 1046,
      "alan": 1047,
      "asar": 1048,
      "ĠSan": 1049,
      "ĠAyrÄ±ca": 1050,
      "dar": 1051,
      "sun": 1052,
      "ĠyÃ¶net": 1053,
      "lendir": 1054,
      "ion": 1055,
      "nun": 1056,
      "Ã¼fus": 1057,
      "ĠoluÅŁ": 1058,
      "Ġgetir": 1059,
      "ĠsÃ¶z": 1060,
      "gram": 1061,
      "Ġben": 1062,
      "Ġgelen": 1063,
      "ht": 1064,
      "lerinin": 1065,
      "oÅŁ": 1066,
      "ow": 1067,
      "abil": 1068,
      "ĠaynÄ±": 1069,
      "bir": 1070,
      "irket": 1071,
      "lanan": 1072,
      "Ġyet": 1073,
      "Ġter": 1074,
      "ĠmaÃ§": 1075,
      "ĠAs": 1076,
      "ĠdiÄŁer": 1077,
      "Ġiz": 1078,
      "ĠFrans": 1079,
      "ĠBeled": 1080,
      "ĠmÃ¼z": 1081,
      "ĠDÃ¼nya": 1082,
      "Ġilgili": 1083,
      "ĠÃ¶nce": 1084,
      "ĠaÄŁ": 1085,
      "esini": 1086,
      "ĠCumhur": 1087,
      "Ġtarihinde": 1088,
      "ĠyapÄ±lan": 1089,
      "ĠiÃ§er": 1090,
      "ĠThe": 1091,
      "Ġtekn": 1092,
      "ia": 1093,
      "endi": 1094,
      "likle": 1095,
      "eceÄŁ": 1096,
      "Ġfaz": 1097,
      "indeki": 1098,
      "Ġ12": 1099,
      "Ġuygul": 1100,
      "eniz": 1101,
      "ilmiÅŁtir": 1102,
      "Ġ17": 1103,
      "inal": 1104,
      "rupa": 1105,
      "luk": 1106,
      "Ġsezon": 1107,
      "Ġya": 1108,
      "ĠTem": 1109,
      "ece": 1110,
      "acÄ±": 1111,
      "gÃ¼n": 1112,
      "Ġ:": 1113,
      "ĠAlman": 1114,
      "ĠgÃ¶z": 1115,
      "Ġdol": 1116,
      "oÄŁraf": 1117,
      "Ġtamam": 1118,
      "Ã¼ven": 1119,
      "diÄŁi": 1120,
      "lim": 1121,
      "ĠyÃ¼zyÄ±l": 1122,
      "liÄŁ": 1123,
      "ĠTarih": 1124,
      "Ã¼nÃ¼": 1125,
      "Ġgenel": 1126,
      "Ġsun": 1127,
      "landÄ±": 1128,
      "||": 1129,
      "Ġkol": 1130,
      "Ġsistem": 1131,
      "Ġyay": 1132,
      "ĠkÃ¶": 1133,
      "Ġot": 1134,
      "lerine": 1135,
      "ĠilÃ§esine": 1136,
      "eti": 1137,
      "ĠÃ¼st": 1138,
      "rak": 1139,
      "ĠEs": 1140,
      "ĠÃľniversitesi": 1141,
      "AR": 1142,
      "lus": 1143,
      "Ġkom": 1144,
      "lardan": 1145,
      "Ġerk": 1146,
      "ĠAvrupa": 1147,
      "dÄ±m": 1148,
      "sÄ±z": 1149,
      "Ġkr": 1150,
      "Ä±lÄ±k": 1151,
      "siz": 1152,
      "Ġ16": 1153,
      "Ġne": 1154,
      "Ġaz": 1155,
      "Ġ195": 1156,
      "lama": 1157,
      "Ġtut": 1158,
      "ĠkarÅŁÄ±": 1159,
      "ER": 1160,
      "tÄ±k": 1161,
      "esinin": 1162,
      "ĠAmerikalÄ±": 1163,
      "ĠolduÄŁunu": 1164,
      "oÄŁlu": 1165,
      "Ġfutbolcular": 1166,
      "ost": 1167,
      "oc": 1168,
      "ayÄ±s": 1169,
      "Ã¼ny": 1170,
      "ĠoluÅŁtur": 1171,
      "Ġsiyas": 1172,
      "ĠGenel": 1173,
      "iÅŁim": 1174,
      "tik": 1175,
      "Ġ11": 1176,
      "fa": 1177,
      "anlÄ±": 1178,
      "azÄ±r": 1179,
      "Ġkab": 1180,
      "ĠBur": 1181,
      "ram": 1182,
      "Ä±zÄ±": 1183,
      "ĠOs": 1184,
      "ĠdeÄŁil": 1185,
      "ĠMar": 1186,
      "ĠAt": 1187,
      "ĠÃ¶nc": 1188,
      "ĠEl": 1189,
      "ĠalbÃ¼m": 1190,
      "Ġinsanlar": 1191,
      "ĠbÃ¶lÃ¼m": 1192,
      "yl": 1193,
      "Ġsal": 1194,
      "ĠHaber": 1195,
      "onom": 1196,
      "ĠBaÅŁkanÄ±": 1197,
      "ĠÄ°ÅŁ": 1198,
      "ĠMart": 1199,
      "Ġolmak": 1200,
      "ĠAÄŁ": 1201,
      "ledi": 1202,
      "Ġetk": 1203,
      "Ġede": 1204,
      "ĠbaÅŁladÄ±": 1205,
      "ĠdÄ±ÅŁ": 1206,
      "Ġtes": 1207,
      "Ġres": 1208,
      "ĠKas": 1209,
      "isinde": 1210,
      "Ġmet": 1211,
      "ĠulaÅŁ": 1212,
      "Ġeden": 1213,
      "net": 1214,
      "Ġdil": 1215,
      "Ġduy": 1216,
      "ĠBirleÅŁ": 1217,
      "leme": 1218,
      "ÄŁÃ¼": 1219,
      "ĠBr": 1220,
      "Ġbilg": 1221,
      "AN": 1222,
      "ĠiÃ§inde": 1223,
      "ĠAd": 1224,
      "ucu": 1225,
      "ĠÃ¶r": 1226,
      "ĠOyun": 1227,
      "Ã¼zel": 1228,
      "ĠdeÄŁer": 1229,
      "Ġsit": 1230,
      "ĠTek": 1231,
      "ĠÃ¼Ã§": 1232,
      "mam": 1233,
      "Ġhayat": 1234,
      "ĠkullanÄ±l": 1235,
      "Ġhakk": 1236,
      "ĠyÃ¼ksek": 1237,
      "atÄ±r": 1238,
      "ĠeÅŁ": 1239,
      "ali": 1240,
      "Ġfazla": 1241,
      "ĠKr": 1242,
      "Ġmod": 1243,
      "ĠÃĸdÃ¼l": 1244,
      "ĠRus": 1245,
      "Ġ14": 1246,
      "ĠÅŁirket": 1247,
      "dÄ±ndan": 1248,
      "ĠNe": 1249,
      "eyen": 1250,
      "Ã©": 1251,
      "ĠadÄ±": 1252,
      "Ġlist": 1253,
      "Ġbiri": 1254,
      "Ġ13": 1255,
      "ici": 1256,
      "ĠkonuÅŁ": 1257,
      "emek": 1258,
      "Ġkor": 1259,
      "Ġ194": 1260,
      "ĠAmerika": 1261,
      "layan": 1262,
      "anda": 1263,
      "eme": 1264,
      "Ġbilin": 1265,
      "Ã¼ne": 1266,
      "ĠÃ§ev": 1267,
      "ĠBirleÅŁik": 1268,
      "ĠHaz": 1269,
      "Ġkan": 1270,
      "erb": 1271,
      "Ġyok": 1272,
      "Ġeski": 1273,
      "ĠÃ§ocuk": 1274,
      "ĠÄ°ngiliz": 1275,
      "azet": 1276,
      "Ã§iler": 1277,
      "ĠÃ¼ret": 1278,
      "siyon": 1279,
      "ilmiÅŁ": 1280,
      "kara": 1281,
      "yi": 1282,
      "olu": 1283,
      "ĠhazÄ±r": 1284,
      "Ġkit": 1285,
      "ĠLe": 1286,
      "lerinden": 1287,
      "ĠFilm": 1288,
      "Ġsaat": 1289,
      "Ã¼b": 1290,
      "Ġli": 1291,
      "ĠÅŁehir": 1292,
      "Ġif": 1293,
      "of": 1294,
      "estek": 1295,
      "iran": 1296,
      "ĠÃ¼zere": 1297,
      "Ġbit": 1298,
      "Ġw": 1299,
      "Ġhav": 1300,
      "gel": 1301,
      "larÄ±ndan": 1302,
      "lÃ®": 1303,
      "oh": 1304,
      "aj": 1305,
      "arasÄ±": 1306,
      "Ġtur": 1307,
      "aÅŁtÄ±r": 1308,
      "Ġzor": 1309,
      "gan": 1310,
      "ĠgÃ¶rÃ¼n": 1311,
      "Ġ21": 1312,
      "ĠEv": 1313,
      "meye": 1314,
      "ĠAB": 1315,
      "lenen": 1316,
      "ert": 1317,
      "ĠTr": 1318,
      "ĠÅŁeh": 1319,
      "Ãĸ": 1320,
      "yan": 1321,
      "uc": 1322,
      "Ã§Ä±": 1323,
      "ank": 1324,
      "Ġmahall": 1325,
      "Ġitib": 1326,
      "Ä±p": 1327,
      "Ġerkek": 1328,
      "baÅŁ": 1329,
      "Ã§ok": 1330,
      "Ãĩ": 1331,
      "ĠIn": 1332,
      "ĠfarklÄ±": 1333,
      "ĠOsman": 1334,
      "Ġanlam": 1335,
      "ĠÃ¼rÃ¼n": 1336,
      "Ġhaf": 1337,
      "ĠKan": 1338,
      "ĠDoÄŁ": 1339,
      "pan": 1340,
      "Ġhas": 1341,
      "atik": 1342,
      "Ġsiz": 1343,
      "ĠÃ§Ä±kar": 1344,
      "Ġbek": 1345,
      "muz": 1346,
      "ĠardÄ±ndan": 1347,
      "lÃ¼k": 1348,
      "ĠyardÄ±m": 1349,
      "Ġuzak": 1350,
      "ĠdÃ¼ÅŁÃ¼n": 1351,
      "ĠiÅŁlem": 1352,
      "uzey": 1353,
      "Ġkez": 1354,
      "ĠKad": 1355,
      "res": 1356,
      "ĠSt": 1357,
      "Ä±cÄ±": 1358,
      "ale": 1359,
      "lak": 1360,
      "Ġkes": 1361,
      "rub": 1362,
      "Ġsonr": 1363,
      "ĠBÃ¶l": 1364,
      "anan": 1365,
      "ĠMayÄ±s": 1366,
      "ĠyarÄ±ÅŁ": 1367,
      "osyal": 1368,
      "ĠUlus": 1369,
      "dÄ±ÄŁÄ±": 1370,
      "Ä±ÅŁtÄ±r": 1371,
      "landÄ±r": 1372,
      "ĠOcak": 1373,
      "ĠÅŀub": 1374,
      "maz": 1375,
      "ĠHal": 1376,
      "ĠÃ¶len": 1377,
      "las": 1378,
      "Ġdik": 1379,
      "dem": 1380,
      "ĠBÃ¼yÃ¼k": 1381,
      "ĠkiÅŁi": 1382,
      "Ġ2020": 1383,
      "cÃ¼": 1384,
      "ana": 1385,
      "adece": 1386,
      "ĠKasÄ±m": 1387,
      "izyon": 1388,
      "ĠYÄ±l": 1389,
      "ĠYaÅŁayan": 1390,
      "eÅŁit": 1391,
      "Ġmes": 1392,
      "rik": 1393,
      "ĠNis": 1394,
      "Ġcin": 1395,
      "ĠgerÃ§ekleÅŁtir": 1396,
      "ina": 1397,
      "ĠeÄŁitim": 1398,
      "Ġthe": 1399,
      "Ġspor": 1400,
      "Ġdir": 1401,
      "Ã¶k": 1402,
      "Ġark": 1403,
      "oyun": 1404,
      "ens": 1405,
      "ĠÃ¼zerine": 1406,
      "enk": 1407,
      "ĠAnkara": 1408,
      "can": 1409,
      "larla": 1410,
      "okt": 1411,
      "ue": 1412,
      "ily": 1413,
      "ĠBaÅŁkan": 1414,
      "ĠKal": 1415,
      "sam": 1416,
      "ĠdeÄŁiÅŁ": 1417,
      "Ġfilmler": 1418,
      "ĠyaÅŁam": 1419,
      "Ġbah": 1420,
      "ĠKom": 1421,
      "lÄ±ÄŁ": 1422,
      "Ġbulundu": 1423,
      "Ã¼Ã§Ã¼k": 1424,
      "ud": 1425,
      "ĠCumhuriyet": 1426,
      "ylÃ¼l": 1427,
      "ĠgÃ¼ven": 1428,
      "Ġdestek": 1429,
      "ĠAf": 1430,
      "ĠEÄŁ": 1431,
      "Ġ2010": 1432,
      "Ġbur": 1433,
      "ĠHaziran": 1434,
      "Ġhaber": 1435,
      "Ġuzun": 1436,
      "Ã¼mÃ¼z": 1437,
      "ilmesi": 1438,
      "ĠiliÅŁ": 1439,
      "Ġbiz": 1440,
      "Ġediyor": 1441,
      "Ġprogram": 1442,
      "azar": 1443,
      "ĠMah": 1444,
      "ĠadlÄ±": 1445,
      "ord": 1446,
      "Ġtab": 1447,
      "ĠEylÃ¼l": 1448,
      "Ġdedi": 1449,
      "kÄ±": 1450,
      "ker": 1451,
      "Ġ/": 1452,
      "Ġki": 1453,
      "Ġmak": 1454,
      "imleri": 1455,
      "urg": 1456,
      "ĠTemmuz": 1457,
      "Ġsanat": 1458,
      "ĠbaÅŁar": 1459,
      "Ġitibar": 1460,
      "Ã¶yle": 1461,
      "ore": 1462,
      "ros": 1463,
      "199": 1464,
      "ĠEm": 1465,
      "ĠYeni": 1466,
      "ĠNisan": 1467,
      "ĠgeÃ§ir": 1468,
      "ĠEkim": 1469,
      "Ġkonu": 1470,
      "sal": 1471,
      "ite": 1472,
      "ĠÃ¶lenler": 1473,
      "Ġpol": 1474,
      "Ã¼ltÃ¼r": 1475,
      "ĠKup": 1476,
      "ilerin": 1477,
      "ĠsÄ±n": 1478,
      "ich": 1479,
      "Ġayr": 1480,
      "kat": 1481,
      "lerden": 1482,
      "ĠsÄ±k": 1483,
      "usunda": 1484,
      "ĠÅŀampiyon": 1485,
      "âĢ¦": 1486,
      "alet": 1487,
      "Ġ%": 1488,
      "ou": 1489,
      "asÄ±l": 1490,
      "Ġkarar": 1491,
      "18": 1492,
      "ĠkatÄ±l": 1493,
      "tiv": 1494,
      "Ġancak": 1495,
      "Ġolur": 1496,
      "Ã¼yor": 1497,
      "ĠbirÃ§ok": 1498,
      "ĠABD": 1499,
      "Ġ193": 1500,
      "ĠyaklaÅŁ": 1501,
      "ĠKÃ¶y": 1502,
      "dik": 1503,
      "per": 1504,
      "ĠÃ¼n": 1505,
      "Ġsu": 1506,
      "evizyon": 1507,
      "ustos": 1508,
      "urt": 1509,
      "ĠRes": 1510,
      "Ġgit": 1511,
      "Ġbelirt": 1512,
      "ĠÄ°z": 1513,
      "Ġfiyat": 1514,
      "Ġ#": 1515,
      "onya": 1516,
      "ĠgÃ¼zel": 1517,
      "Ġ2018": 1518,
      "ĠOk": 1519,
      "ĠÅŁey": 1520,
      "Ġsen": 1521,
      "dÄ±k": 1522,
      "10": 1523,
      "Ġolacak": 1524,
      "Ġail": 1525,
      "ĠÃ¼zerinde": 1526,
      "ĠAralÄ±k": 1527,
      "Ġsiyaset": 1528,
      "ĠÃ§eÅŁit": 1529,
      "ĠHer": 1530,
      "ang": 1531,
      "ĠbazÄ±": 1532,
      "Ġgur": 1533,
      "ĠPr": 1534,
      "ĠÄ°lk": 1535,
      "asÄ±nÄ±": 1536,
      "sil": 1537,
      "ĠgÃ¶n": 1538,
      "ĠYar": 1539,
      "abilirsiniz": 1540,
      "fer": 1541,
      "vek": 1542,
      "enler": 1543,
      "eket": 1544,
      "muÅŁ": 1545,
      "ĠdoÄŁru": 1546,
      "Ġ2019": 1547,
      "ĠyakÄ±n": 1548,
      "Ġama": 1549,
      "Ġ192": 1550,
      "ĠgÃ¼Ã§": 1551,
      "oloji": 1552,
      "Ä±rak": 1553,
      "ĠKul": 1554,
      "ĠPol": 1555,
      "lararasÄ±": 1556,
      "ĠAÄŁustos": 1557,
      "ari": 1558,
      "Ġbeled": 1559,
      "'s": 1560,
      "Ġproj": 1561,
      "ahat": 1562,
      "br": 1563,
      "ogr": 1564,
      "Ġkim": 1565,
      "ĠyaptÄ±ÄŁÄ±": 1566,
      "cek": 1567,
      "adel": 1568,
      "Ã¼nÃ¼n": 1569,
      "kÃ¼": 1570,
      "Ġsin": 1571,
      "Ġkendi": 1572,
      "ĠDem": 1573,
      "ĠMÃ¼dÃ¼r": 1574,
      ".\"": 1575,
      "Ġmut": 1576,
      "and": 1577,
      "Ġart": 1578,
      "ĠHar": 1579,
      "Ġolup": 1580,
      "aylaÅŁ": 1581,
      "ĠÄ°tal": 1582,
      "Ġgeldi": 1583,
      "emiz": 1584,
      "ĠKat": 1585,
      "ĠSavaÅŁ": 1586,
      "ĠvardÄ±r": 1587,
      "ĠGal": 1588,
      "ĠTur": 1589,
      "vet": 1590,
      "ire": 1591,
      "Ġtasar": 1592,
      "ĠuÃ§": 1593,
      "ĠhakkÄ±nda": 1594,
      "Ġsadece": 1595,
      "Ġ2017": 1596,
      "ĠmillÃ®": 1597,
      "ĠMerkez": 1598,
      "ber": 1599,
      "ĠhÄ±z": 1600,
      "ĠYap": 1601,
      "Ġ2021": 1602,
      "ron": 1603,
      "Ã¼sÃ¼": 1604,
      "Ġgrup": 1605,
      "Ġteknik": 1606,
      "ĠdÃ¼ny": 1607,
      "yo": 1608,
      "Ġer": 1609,
      "fes": 1610,
      "ĠTop": 1611,
      "Ġ30": 1612,
      "isyon": 1613,
      "aliyet": 1614,
      "ĠSh": 1615,
      "Ä±t": 1616,
      "obil": 1617,
      "ĠDaha": 1618,
      "ĠDer": 1619,
      "Ġolduk": 1620,
      "larÄ±mÄ±z": 1621,
      "tif": 1622,
      "iyesi": 1623,
      "ĠsÄ±": 1624,
      "malarÄ±": 1625,
      "letvek": 1626,
      "mÃ¼ÅŁ": 1627,
      "son": 1628,
      "ation": 1629,
      "ĠaÃ§Ä±klam": 1630,
      "pr": 1631,
      "undan": 1632,
      "Ġilinin": 1633,
      "tÄ±ÄŁÄ±": 1634,
      "Ġ2012": 1635,
      "Ġmilyon": 1636,
      "Ġisim": 1637,
      "Ġnedeniyle": 1638,
      "ver": 1639,
      "ĠyÄ±lÄ±": 1640,
      "Ġ2016": 1641,
      "ĠÅŀubat": 1642,
      "par": 1643,
      "ĠhiÃ§": 1644,
      "ĠBey": 1645,
      "doÄŁ": 1646,
      "adÄ±ÄŁÄ±": 1647,
      "Ġkabul": 1648,
      "Ġfilmleri": 1649,
      "Ġkariy": 1650,
      "Ġyapan": 1651,
      "Ġtarihi": 1652,
      "000": 1653,
      "ĠNÃ¼fus": 1654,
      "ni": 1655,
      "com": 1656,
      "ulan": 1657,
      "Ġyazar": 1658,
      "Ġedildi": 1659,
      "ĠbÄ±rak": 1660,
      "ĠDevletleri": 1661,
      "eda": 1662,
      "ĠOsmanlÄ±": 1663,
      "ĠAlt": 1664,
      "Ġ25": 1665,
      "ĠgeliÅŁtir": 1666,
      "ĠyÃ¼r": 1667,
      "Ġdav": 1668,
      "Ġedilen": 1669,
      "ĠHay": 1670,
      "ĠolmasÄ±": 1671,
      "=\"": 1672,
      "ime": 1673,
      "lis": 1674,
      "ĠMan": 1675,
      "ĠÃ§alÄ±ÅŁmalar": 1676,
      "ton": 1677,
      "anÄ±t": 1678,
      "lo": 1679,
      "ĠJap": 1680,
      "adaÅŁ": 1681,
      "ĠtakÄ±mÄ±": 1682,
      "Ġgurbet": 1683,
      "bak": 1684,
      "Ġetm": 1685,
      "luÄŁu": 1686,
      "Ã¼mÃ¼": 1687,
      "ĠAz": 1688,
      "ĠKupasÄ±": 1689,
      "asÄ±nÄ±n": 1690,
      "áĥ": 1691,
      "ideo": 1692,
      "Ġdikkat": 1693,
      "Ġplan": 1694,
      "ork": 1695,
      "Ġey": 1696,
      "ind": 1697,
      "Ġmuh": 1698,
      "rar": 1699,
      "Ġ2015": 1700,
      "ĠÃĸzel": 1701,
      "Ġkurulan": 1702,
      "ĠAb": 1703,
      "ĠFak": 1704,
      "Ġtah": 1705,
      "Ã¼cadel": 1706,
      "ova": 1707,
      "Ġses": 1708,
      "oman": 1709,
      "ĠBakan": 1710,
      "Ġ,": 1711,
      "ij": 1712,
      "Ġyas": 1713,
      "eng": 1714,
      "Ġmev": 1715,
      "Ġhat": 1716,
      "oÄŁun": 1717,
      "Ġdevlet": 1718,
      "Ġdiye": 1719,
      "ĠkarÅŁÄ±l": 1720,
      "spor": 1721,
      "azi": 1722,
      "ĠPart": 1723,
      "alt": 1724,
      "Ġun": 1725,
      "Ġikinci": 1726,
      "land": 1727,
      "unan": 1728,
      "Ġmerkezine": 1729,
      "Ġ2014": 1730,
      "efon": 1731,
      "ternet": 1732,
      "Ġ.": 1733,
      "Ġortaya": 1734,
      "ack": 1735,
      "ĠsavaÅŁ": 1736,
      "Ġfor": 1737,
      "lerle": 1738,
      "masÄ±nÄ±": 1739,
      "Ġkil": 1740,
      "ĠÃĸdÃ¼lÃ¼": 1741,
      "inc": 1742,
      "yalÄ±": 1743,
      "Ä±lÄ±r": 1744,
      "ĠÂ": 1745,
      "ĠhÃ¼k": 1746,
      "dae": 1747,
      "Ã¼tÃ¼n": 1748,
      "ĠSer": 1749,
      "ograf": 1750,
      "tem": 1751,
      "Ġiht": 1752,
      "ĠkaÃ§": 1753,
      "izm": 1754,
      "deÅŁ": 1755,
      "ĠolmuÅŁtur": 1756,
      "uluk": 1757,
      "ift": 1758,
      "Ġfa": 1759,
      "ĠkayÄ±": 1760,
      "ĠmÃ¼zik": 1761,
      "ĠgeÃ§en": 1762,
      "âĢĿ": 1763,
      "ĠFransÄ±z": 1764,
      "Ġrol": 1765,
      "12": 1766,
      "tiÄŁi": 1767,
      "ie": 1768,
      "gu": 1769,
      "umu": 1770,
      "EN": 1771,
      "Ġdah": 1772,
      "mayÄ±": 1773,
      "cÄ±sÄ±": 1774,
      "ern": 1775,
      "Ġ24": 1776,
      "aba": 1777,
      "Ġ2013": 1778,
      "ĠGÃ¼ney": 1779,
      "masÄ±na": 1780,
      "Ġ2011": 1781,
      "elen": 1782,
      "lin": 1783,
      "Ä±sÄ±nda": 1784,
      "Ġzamanda": 1785,
      "ator": 1786,
      "ĠYÃ¶n": 1787,
      "ĠBen": 1788,
      "ĠgÃ¶rÃ¼l": 1789,
      "Ġboyun": 1790,
      "ĠFransa": 1791,
      "andaÅŁ": 1792,
      "iyaret": 1793,
      "Ġtelevizyon": 1794,
      "Ã¼lt": 1795,
      "ĠâĢľ": 1796,
      "sik": 1797,
      "Ġand": 1798,
      "ema": 1799,
      "ĠÅŁu": 1800,
      "lamak": 1801,
      "atandaÅŁ": 1802,
      "ĠAncak": 1803,
      "ĠyatÄ±r": 1804,
      "Ġgeri": 1805,
      "ĠparÃ§": 1806,
      "limp": 1807,
      "Ġhayvan": 1808,
      "det": 1809,
      "ĠsÄ±nÄ±r": 1810,
      "Ġhareket": 1811,
      "ĠBar": 1812,
      "ĠOlimp": 1813,
      "alle": 1814,
      "ĠOn": 1815,
      "ĠDr": 1816,
      "elerin": 1817,
      "Ġanlat": 1818,
      "ĠTak": 1819,
      "ĠkÄ±r": 1820,
      "eci": 1821,
      "ĠbaÅŁkan": 1822,
      "ĠHas": 1823,
      "ĠÄ°Ã§": 1824,
      "ĠÃ§Ã¶z": 1825,
      "Ġ2009": 1826,
      "Ġfir": 1827,
      "lah": 1828,
      "Ġ23": 1829,
      "ĠnasÄ±l": 1830,
      "Ġ22": 1831,
      "Ġgrub": 1832,
      "ĠKo": 1833,
      "iss": 1834,
      "ĠgÃ¶nder": 1835,
      "isini": 1836,
      "Ä±ÅŁÄ±": 1837,
      "ilmektedir": 1838,
      "ciler": 1839,
      "ĠHav": 1840,
      "Ġem": 1841,
      "Ġyerine": 1842,
      "ĠkÃ¼Ã§Ã¼k": 1843,
      "amily": 1844,
      "ĠbakÄ±nÄ±z": 1845,
      "ĠyÃ¼ksel": 1846,
      "ĠmÃ¼": 1847,
      "ĠNew": 1848,
      "int": 1849,
      "Ġhes": 1850,
      "ĠÃĸn": 1851,
      "ĠseÃ§im": 1852,
      "Ä±lmÄ±ÅŁ": 1853,
      "Ġuygun": 1854,
      "ĠMal": 1855,
      "ĠkÄ±sa": 1856,
      "alya": 1857,
      "Ġmez": 1858,
      "ĠsonuÃ§": 1859,
      "edik": 1860,
      "ĠgeliÅŁ": 1861,
      "ĠBay": 1862,
      "ĠaraÃ§": 1863,
      "muÅŁtur": 1864,
      "adÄ±k": 1865,
      "Ã¶rt": 1866,
      "ĠYaz": 1867,
      "Ġyen": 1868,
      "ĠSam": 1869,
      "ĠpaylaÅŁ": 1870,
      "Ġeder": 1871,
      "gÄ±": 1872,
      "Ġuygulam": 1873,
      "Ã¼fusu": 1874,
      "Ġmodel": 1875,
      "ĠarkadaÅŁ": 1876,
      "FA": 1877,
      "asyonu": 1878,
      "ĠteÅŁ": 1879,
      "ĠmÃ¼cadel": 1880,
      "ilecek": 1881,
      "ÅŁehir": 1882,
      "ET": 1883,
      "ĠMÃ¼z": 1884,
      "Ġulus": 1885,
      "Ġfinal": 1886,
      "Ġsorun": 1887,
      "Ġkam": 1888,
      "Ġav": 1889,
      "ĠuzaklÄ±k": 1890,
      ").": 1891,
      "gÄ±n": 1892,
      "ĠYer": 1893,
      "ĠnÃ¼fus": 1894,
      "Ġkapsam": 1895,
      "tere": 1896,
      "ĠX": 1897,
      "AL": 1898,
      "Ġ2008": 1899,
      "Ġait": 1900,
      "Ġseb": 1901,
      "ĠgÃ¶rÃ¼ÅŁ": 1902,
      "lÃ¼ÄŁÃ¼": 1903,
      "ĠsÃ¼re": 1904,
      "ĠOlimpiyat": 1905,
      "mir": 1906,
      "luÄŁ": 1907,
      "ĠAh": 1908,
      "ĠbulunmaktadÄ±r": 1909,
      "tep": 1910,
      "nÄ±": 1911,
      "ug": 1912,
      "Ġpara": 1913,
      "Ġboy": 1914,
      "ĠyaklaÅŁÄ±k": 1915,
      "ĠBelediye": 1916,
      "ĠÃ§eÅŁitli": 1917,
      "Ä±mcÄ±": 1918,
      "Ġgid": 1919,
      "uan": 1920,
      "ĠGÃ¼r": 1921,
      "Ġgazet": 1922,
      "Ä°N": 1923,
      "Ġada": 1924,
      "iyorum": 1925,
      "ĠiÃ§erisinde": 1926,
      "abÄ±": 1927,
      "lum": 1928,
      "ĠAlmanya": 1929,
      "Ġst": 1930,
      "esinden": 1931,
      "dana": 1932,
      "ĠyerleÅŁ": 1933,
      "Ġkarak": 1934,
      "ÄŁimiz": 1935,
      "ha": 1936,
      "ĠaraÅŁtÄ±r": 1937,
      "isine": 1938,
      "ĠMuh": 1939,
      "Ġid": 1940,
      "iyoruz": 1941,
      "trol": 1942,
      "Ġhalk": 1943,
      "our": 1944,
      "ĠKadÄ±n": 1945,
      "Ġtelefon": 1946,
      "osu": 1947,
      "ĠHol": 1948,
      "ĠÃ¶dÃ¼l": 1949,
      "ĠÃĩin": 1950,
      "IN": 1951,
      "lerimiz": 1952,
      "ĠII": 1953,
      "ĠHak": 1954,
      "isinin": 1955,
      "Ġtoplam": 1956,
      "ĠsayÄ±": 1957,
      "co": 1958,
      "min": 1959,
      "ĠAli": 1960,
      "ĠHan": 1961,
      "Ġgiy": 1962,
      "Ġziyaret": 1963,
      "ĠgenÃ§": 1964,
      "Ġmey": 1965,
      "emi": 1966,
      "ĠTarihÃ§e": 1967,
      "Ġyeniden": 1968,
      "Ġverdi": 1969,
      "Ġtal": 1970,
      "yor": 1971,
      "AK": 1972,
      "und": 1973,
      "Ã¼ncÃ¼": 1974,
      "Ã¼ler": 1975,
      "ĠSpor": 1976,
      "ĠÅŁehr": 1977,
      "esiyle": 1978,
      "âĢĵ": 1979,
      "ĠyÄ±llarÄ±": 1980,
      "ĠvatandaÅŁ": 1981,
      "ĠaltÄ±nda": 1982,
      "ji": 1983,
      "ĠkÄ±z": 1984,
      "Ġkaynak": 1985,
      "th": 1986,
      "oÄŁrafya": 1987,
      "ĠTh": 1988,
      "aban": 1989,
      "Ã»": 1990,
      "Ġolay": 1991,
      "Ġekip": 1992,
      "Ä±lmasÄ±": 1993,
      "11": 1994,
      "ĠOl": 1995,
      "50": 1996,
      "inizi": 1997,
      "Ġ2007": 1998,
      "ĠsÄ±rasÄ±nda": 1999,
      "Ġedeb": 2000,
      "Ġper": 2001,
      "iya": 2002,
      "ĠinÅŁ": 2003,
      "ĠnÃ¼fusu": 2004,
      "Ġbenz": 2005,
      "ong": 2006,
      "Ġdo": 2007,
      "ĠÃ§evr": 2008,
      "Ġdem": 2009,
      "Ġ2006": 2010,
      "ĠDeniz": 2011,
      "isk": 2012,
      "Ġ2000": 2013,
      "sh": 2014,
      "uru": 2015,
      "meler": 2016,
      "Ġtemsil": 2017,
      "uyla": 2018,
      "lendi": 2019,
      "Ġber": 2020,
      "Ġbey": 2021,
      "Ġdin": 2022,
      "Ã¼nden": 2023,
      "leyen": 2024,
      "ayet": 2025,
      "ate": 2026,
      "ond": 2027,
      "sÄ±": 2028,
      "ell": 2029,
      "Ġmark": 2030,
      "Ġu": 2031,
      "edef": 2032,
      "Äŀ": 2033,
      "Ġifade": 2034,
      "Ġdak": 2035,
      "suz": 2036,
      "ĠyÃ¼zde": 2037,
      "ĠkayÄ±t": 2038,
      "Ġ26": 2039,
      "etmen": 2040,
      "eder": 2041,
      "ĠKay": 2042,
      "ĠÄ°ngiltere": 2043,
      "sin": 2044,
      "duÄŁu": 2045,
      "nek": 2046,
      "elim": 2047,
      "ĠFC": 2048,
      "ĠsaldÄ±r": 2049,
      "ekte": 2050,
      "ĠdirektÃ¶r": 2051,
      "ĠdÃ¼nya": 2052,
      "ĠdÃ¶nÃ¼ÅŁ": 2053,
      "Ġmal": 2054,
      "Ã¼cret": 2055,
      "ĠBas": 2056,
      "manÄ±n": 2057,
      "ĠÄ°m": 2058,
      "ince": 2059,
      "Ġkent": 2060,
      "ĠyapÄ±": 2061,
      "dÄ±z": 2062,
      "esel": 2063,
      "Ġihtiy": 2064,
      "Ġbilgi": 2065,
      "ĠBiz": 2066,
      "Ġ||": 2067,
      "198": 2068,
      "Ġelde": 2069,
      "ĠBul": 2070,
      "ĠÃ¼cret": 2071,
      "ĠEur": 2072,
      "ĠSal": 2073,
      "anlar": 2074,
      "ĠsaÄŁlÄ±k": 2075,
      "ĠÄ°yi": 2076,
      "Ġboyunca": 2077,
      "ĠKÄ±r": 2078,
      "ĠUz": 2079,
      "AT": 2080,
      "ketbol": 2081,
      "adem": 2082,
      "ĠyayÄ±m": 2083,
      "ĠSay": 2084,
      "ĠTekn": 2085,
      "acaÄŁÄ±": 2086,
      "ĠsÃ¶yledi": 2087,
      "Ġkitap": 2088,
      "cular": 2089,
      "ĠÄ°span": 2090,
      "Ġkav": 2091,
      "ĠRusya": 2092,
      "parator": 2093,
      "30": 2094,
      "21": 2095,
      "ĠÃ§Ä±ktÄ±": 2096,
      "ish": 2097,
      "ile": 2098,
      "for": 2099,
      "ĠÅŁampiyon": 2100,
      "ĠOt": 2101,
      "Ġetkin": 2102,
      "Ġsosyal": 2103,
      "Ä±nÄ±f": 2104,
      "unuz": 2105,
      "edav": 2106,
      "ĠMeh": 2107,
      "itik": 2108,
      "ĠanlaÅŁ": 2109,
      "ĠCoÄŁrafya": 2110,
      "Ġetmek": 2111,
      "ukuk": 2112,
      "Ä±lÄ±ÄŁÄ±": 2113,
      "ĠSavaÅŁÄ±": 2114,
      "ĠtanÄ±m": 2115,
      "yonel": 2116,
      "ĠBelediyesi": 2117,
      "ga": 2118,
      "15": 2119,
      "Ð°": 2120,
      "eceÄŁi": 2121,
      "ĠgurbetÃ§i": 2122,
      "Ġpiyas": 2123,
      "ĠgeniÅŁ": 2124,
      "fesyonel": 2125,
      "Ġtip": 2126,
      "ĠYunan": 2127,
      "ĠbaÅŁka": 2128,
      "Ä±llÄ±": 2129,
      "ĠSaÄŁ": 2130,
      "ĠPartisi": 2131,
      "amaz": 2132,
      "Ġdahil": 2133,
      "dam": 2134,
      "Ġgelir": 2135,
      "ĠSur": 2136,
      "Ġmilletvek": 2137,
      "ĠGÃ¶r": 2138,
      "ĠoyuncularÄ±": 2139,
      "Ġterc": 2140,
      "ĠsÃ¼rdÃ¼r": 2141,
      "Ġgol": 2142,
      "ĠEÄŁitim": 2143,
      "asÄ±ndaki": 2144,
      "ĠBirliÄŁi": 2145,
      "otoÄŁraf": 2146,
      "ĠbugÃ¼n": 2147,
      "may": 2148,
      "Ġekonom": 2149,
      "Ġotom": 2150,
      "be": 2151,
      "afa": 2152,
      "yet": 2153,
      "EL": 2154,
      "Ġweb": 2155,
      "ry": 2156,
      "Ġokul": 2157,
      "ES": 2158,
      "ami": 2159,
      "amak": 2160,
      "Ġyorum": 2161,
      "ĠOrta": 2162,
      "Ġkonusunda": 2163,
      "Ġgal": 2164,
      "Ġhan": 2165,
      "ĠuzaklÄ±ktadÄ±r": 2166,
      "ĠgÃ¼nÃ¼": 2167,
      "Ġberi": 2168,
      "ise": 2169,
      "okr": 2170,
      "ĠKuzey": 2171,
      "ĠMad": 2172,
      "Ġimz": 2173,
      "Ġe": 2174,
      "ĠaÄŁÄ±r": 2175,
      "Ġili": 2176,
      "ĠÄ°zmir": 2177,
      "AS": 2178,
      "ĠÅŁarkÄ±cÄ±": 2179,
      "oma": 2180,
      "Ġmerkezi": 2181,
      "Ġvideo": 2182,
      "ĠAvus": 2183,
      "ĠÃ¶zellik": 2184,
      "ĠyÃ¶netim": 2185,
      "Ġkontrol": 2186,
      "Ġkolay": 2187,
      "ice": 2188,
      "ĠTL": 2189,
      "ĠParti": 2190,
      "Ä±ldÄ±ÄŁÄ±": 2191,
      "Ä±lmÄ±ÅŁtÄ±r": 2192,
      "ĠiliÅŁk": 2193,
      "ĠbÃ¼y": 2194,
      "Ġ27": 2195,
      "ĠÃ§Ä±kan": 2196,
      "ĠÃ¼zerinden": 2197,
      "Ġsil": 2198,
      "ĠyaÄŁ": 2199,
      "ĠSu": 2200,
      "orn": 2201,
      "Ġbab": 2202,
      "aÅŁa": 2203,
      "16": 2204,
      "ba": 2205,
      "mez": 2206,
      "sidir": 2207,
      "ĠÅŀarkÄ±": 2208,
      "ÄŁiniz": 2209,
      "ĠGir": 2210,
      "Ġ100": 2211,
      "one": 2212,
      "ĠSin": 2213,
      "Ġmer": 2214,
      "Ġberaber": 2215,
      "ĠYÃ¼k": 2216,
      "lek": 2217,
      "illi": 2218,
      "ĠkaldÄ±r": 2219,
      "ser": 2220,
      "Ġfamily": 2221,
      "ĠTel": 2222,
      "Ġtekrar": 2223,
      "ĠÐ": 2224,
      "ity": 2225,
      "ivil": 2226,
      "ĠSar": 2227,
      "Ġ|-": 2228,
      "ren": 2229,
      "ĠCo": 2230,
      "ĠCar": 2231,
      "Ġkarakter": 2232,
      "ÄŁÄ±nda": 2233,
      "gen": 2234,
      "atÃ¶r": 2235,
      "ĠdÃ¼zenlenen": 2236,
      "tin": 2237,
      "ĠgiriÅŁ": 2238,
      "dÄ±n": 2239,
      "Ġih": 2240,
      "Ġkut": 2241,
      "ĠkÃ¼ltÃ¼r": 2242,
      "ĠdeÄŁiÅŁtir": 2243,
      "veÃ§": 2244,
      "Ġaday": 2245,
      "MM": 2246,
      "io": 2247,
      "ĠPer": 2248,
      "Ġ&": 2249,
      "ve": 2250,
      "Ġ28": 2251,
      "Ġrenk": 2252,
      "ĠKol": 2253,
      "Ġeser": 2254,
      "Ġasker": 2255,
      "ign": 2256,
      "Ġbilim": 2257,
      "ĠDan": 2258,
      "iyatro": 2259,
      "Ġnum": 2260,
      "Ġ2005": 2261,
      "Ġmem": 2262,
      "umuz": 2263,
      "cut": 2264,
      "Ġmadd": 2265,
      "Ġhedef": 2266,
      "Ġtrans": 2267,
      "icaret": 2268,
      "taÅŁ": 2269,
      "Ä±ntÄ±": 2270,
      "Ġkas": 2271,
      "amÄ±": 2272,
      "ĠBunun": 2273,
      "ĠKral": 2274,
      "ĠMet": 2275,
      "ace": 2276,
      "ĠraÄŁ": 2277,
      "ĠLa": 2278,
      "madan": 2279,
      "ĠÅŀampiyonasÄ±": 2280,
      "Ġsitesi": 2281,
      "Ġrek": 2282,
      "Ġindir": 2283,
      "Ġ2022": 2284,
      "Ġdes": 2285,
      "pit": 2286,
      "Ġincel": 2287,
      "Ġmas": 2288,
      "iliyor": 2289,
      "Ġfak": 2290,
      "lÃ¼ÄŁ": 2291,
      "doÄŁan": 2292,
      "Ġkurum": 2293,
      "eor": 2294,
      "ĠÃ§alÄ±ÅŁan": 2295,
      "ĠbÃ¼tÃ¼n": 2296,
      "17": 2297,
      "elerde": 2298,
      "lardÄ±r": 2299,
      "ĠMec": 2300,
      "14": 2301,
      "Ġmahalle": 2302,
      "ĠsÄ±ra": 2303,
      "ĠSanat": 2304,
      "ach": 2305,
      "ĠfÄ±r": 2306,
      "ĠÃ§iz": 2307,
      "Ġfaaliyet": 2308,
      "ĠCumhuriyeti": 2309,
      "talÄ±k": 2310,
      "HP": 2311,
      "alarÄ±n": 2312,
      "Ġadet": 2313,
      "ekk": 2314,
      "Ġkoy": 2315,
      "ĠdeÄŁiÅŁik": 2316,
      "Ġiddi": 2317,
      "ĠraÄŁmen": 2318,
      "Ġbile": 2319,
      "form": 2320,
      "Ġolabilir": 2321,
      "Ġbar": 2322,
      "Ġcan": 2323,
      "elerini": 2324,
      "ĠKaz": 2325,
      "ĠBakanlÄ±ÄŁÄ±": 2326,
      "Ġtercih": 2327,
      "ĠFakÃ¼lt": 2328,
      "ĠEt": 2329,
      "Ä±ma": 2330,
      "Ġtat": 2331,
      "ĠTB": 2332,
      "ĠPort": 2333,
      "ĠAnd": 2334,
      "Ġbulunur": 2335,
      "Ġod": 2336,
      "lanmÄ±ÅŁ": 2337,
      "Ġana": 2338,
      "Ġveren": 2339,
      "22": 2340,
      "OR": 2341,
      "ĠAÅŁ": 2342,
      "ĠdeÄŁerlendir": 2343,
      "Ġj": 2344,
      "ĠEd": 2345,
      "izi": 2346,
      "ĠBah": 2347,
      "ĠkeÅŁ": 2348,
      "gar": 2349,
      "ague": 2350,
      "ĠÄ°talya": 2351,
      "ĠsektÃ¶r": 2352,
      "Ġsar": 2353,
      "Ġelekt": 2354,
      "ĠGÃ¼ncel": 2355,
      "Ġman": 2356,
      "imler": 2357,
      "yum": 2358,
      "ekiz": 2359,
      "Ä±lÄ±m": 2360,
      "Ġsahibi": 2361,
      "ĠAmerikan": 2362,
      "erson": 2363,
      "istik": 2364,
      "otor": 2365,
      "kÄ±n": 2366,
      "larÄ±yla": 2367,
      "ĠkuruluÅŁ": 2368,
      "Ġrahat": 2369,
      "uvvet": 2370,
      "ĠmÃ¼ÅŁ": 2371,
      "ĠyÃ¼zyÄ±lda": 2372,
      "Ġnokt": 2373,
      "ĠkullanÄ±lan": 2374,
      "erli": 2375,
      "ĠoldukÃ§a": 2376,
      "era": 2377,
      "Ġlistesi": 2378,
      "ĠbaÅŁlam": 2379,
      "med": 2380,
      "Ġmed": 2381,
      "ĠkazandÄ±": 2382,
      "lanmÄ±ÅŁtÄ±r": 2383,
      "Ġ2004": 2384,
      "acaÄŁÄ±nÄ±": 2385,
      "Ġhafta": 2386,
      "ĠÃ§aÄŁ": 2387,
      "\",": 2388,
      "ĠsuÃ§": 2389,
      "ĠGenÃ§": 2390,
      "Ġistedi": 2391,
      "Ã¼per": 2392,
      "gin": 2393,
      "avun": 2394,
      "Ġbun": 2395,
      "rol": 2396,
      "Ä°L": 2397,
      "ĠHat": 2398,
      "ÄŁÄ±mÄ±z": 2399,
      "air": 2400,
      "ĠyanÄ±": 2401,
      "Ġorgan": 2402,
      "Ġtakip": 2403,
      "ĠKor": 2404,
      "AM": 2405,
      "Ġ29": 2406,
      "ĠgerÃ§ekleÅŁ": 2407,
      "Ġsayf": 2408,
      "Ġinternet": 2409,
      "ĠRe": 2410,
      "ĠLigi": 2411,
      "hangi": 2412,
      "ĠÅŁekl": 2413,
      "Ġcez": 2414,
      "ĠSp": 2415,
      "ĠsatÄ±ÅŁ": 2416,
      "ĠdolayÄ±": 2417,
      "Ġitibaren": 2418,
      "onu": 2419,
      "asÄ±ndan": 2420,
      "Ã¡": 2421,
      "ĠdÃ¶rt": 2422,
      "elere": 2423,
      "Ã¼cÃ¼": 2424,
      "Ġmik": 2425,
      "ĠTer": 2426,
      "mer": 2427,
      "Ã¼nkÃ¼": 2428,
      "Ġsak": 2429,
      "Ġilet": 2430,
      "ilere": 2431,
      "asÄ±yla": 2432,
      "ĠGel": 2433,
      "rom": 2434,
      "ĠKap": 2435,
      "ĠÃ§Ä±kÄ±ÅŁ": 2436,
      "Ġmi": 2437,
      "fi": 2438,
      "kil": 2439,
      "ĠYarÄ±ÅŁ": 2440,
      "les": 2441,
      "ĠFutbol": 2442,
      "ĠayrÄ±ca": 2443,
      "13": 2444,
      "malÄ±": 2445,
      "ĠDav": 2446,
      "Ġinan": 2447,
      "Ġengel": 2448,
      "ino": 2449,
      "oÄŁu": 2450,
      "ĠAK": 2451,
      "ĠGÃ¶k": 2452,
      "GC": 2453,
      "ĠUy": 2454,
      "ĠkardeÅŁ": 2455,
      "Ġeyalet": 2456,
      "rika": 2457,
      "Ġyapmak": 2458,
      "enek": 2459,
      "ĠSel": 2460,
      "Ä°R": 2461,
      "ere": 2462,
      "Ġbelediy": 2463,
      "ĠdaÄŁ": 2464,
      "yÄ±": 2465,
      "AY": 2466,
      "ĠyoÄŁun": 2467,
      "ĠkarÅŁÄ±laÅŁ": 2468,
      "taj": 2469,
      "Ġsey": 2470,
      "Ġadam": 2471,
      "ĠÃ¶zellikle": 2472,
      "ĠMehmet": 2473,
      "ĠTBMM": 2474,
      "ĠbaÅŁv": 2475,
      "Ġkir": 2476,
      "qu": 2477,
      "ĠÃ¶ÄŁrenim": 2478,
      "ĠalmaktadÄ±r": 2479,
      "erkes": 2480,
      "ĠoÄŁ": 2481,
      "Ġfilmi": 2482,
      "lor": 2483,
      "ĠYard": 2484,
      "Ġbay": 2485,
      "landa": 2486,
      "ĠAÃ§": 2487,
      "Ġtedav": 2488,
      "lÃ¼m": 2489,
      "ĠMon": 2490,
      "Ġkuzey": 2491,
      "Ġmahalleleri": 2492,
      "to": 2493,
      "EK": 2494,
      "kaÃ§": 2495,
      "ĠilÃ§e": 2496,
      "asÄ±dÄ±r": 2497,
      "ke": 2498,
      "rim": 2499,
      "mem": 2500,
      "alarÄ±nda": 2501,
      "ĠsÄ±nÄ±f": 2502,
      "ED": 2503,
      "ata": 2504,
      "Ġdayan": 2505,
      "ĠmaÄŁ": 2506,
      "iliÄŁi": 2507,
      "ohn": 2508,
      "acaktÄ±r": 2509,
      "alarda": 2510,
      "ĠAltÄ±n": 2511,
      "ĠkÄ±sm": 2512,
      "Ġortak": 2513,
      "ĠyapÄ±mÄ±": 2514,
      "ĠMerkezi": 2515,
      "rek": 2516,
      "ĠSa": 2517,
      "ĠyapÄ±m": 2518,
      "yen": 2519,
      "ĠBer": 2520,
      "ĠUn": 2521,
      "gÃ¼t": 2522,
      "mÃ¼ÅŁtÃ¼r": 2523,
      "ĠaldÄ±ÄŁÄ±": 2524,
      "Ġtespit": 2525,
      "ĠCumhurbaÅŁ": 2526,
      "ĠhÃ¼kÃ¼m": 2527,
      "Ġpat": 2528,
      "anlarÄ±": 2529,
      "197": 2530,
      "ĠalÄ±r": 2531,
      "ĠÃ§ift": 2532,
      "iri": 2533,
      "olojik": 2534,
      "rist": 2535,
      "Ġverilen": 2536,
      "ĠMer": 2537,
      "Ġyine": 2538,
      "ĠMa": 2539,
      "Ġresmi": 2540,
      "bi": 2541,
      "Ġdizi": 2542,
      "ĠYork": 2543,
      "aca": 2544,
      "ĠBeÅŁ": 2545,
      "Ġ2002": 2546,
      "estiv": 2547,
      "sk": 2548,
      "ĠÄ°mparator": 2549,
      "ĠkÄ±y": 2550,
      "Ġtemel": 2551,
      "gesi": 2552,
      "ĠyÃ¶nelik": 2553,
      "ĠUlusal": 2554,
      "Ġzar": 2555,
      "Ġbildir": 2556,
      "ĠkoÅŁ": 2557,
      "oktor": 2558,
      "Ġhep": 2559,
      "sanÄ±z": 2560,
      "ĠUluslararasÄ±": 2561,
      "ĠFen": 2562,
      "ĠaltÄ±": 2563,
      "Ġyarat": 2564,
      "ĠyÃ¶ntem": 2565,
      "ĠoyunlarÄ±": 2566,
      "eÅŁtir": 2567,
      "ĠKÄ±z": 2568,
      "ĠhÄ±zlÄ±": 2569,
      "adolu": 2570,
      "ĠMac": 2571,
      "ĠFran": 2572,
      "ĠLeague": 2573,
      "ith": 2574,
      "lemek": 2575,
      "Ġolmayan": 2576,
      "ĠÃĸr": 2577,
      "ĠQ": 2578,
      "ON": 2579,
      "Ġsahiptir": 2580,
      "Ä±ÅŁÄ±k": 2581,
      "Ġkariyer": 2582,
      "Ġpart": 2583,
      "evi": 2584,
      "su": 2585,
      "ĠKit": 2586,
      "Ġhemen": 2587,
      "ÄŁinde": 2588,
      "ĠMak": 2589,
      "ĠadÄ±yla": 2590,
      "Ġdiy": 2591,
      "Ġhast": 2592,
      "ĠGazet": 2593,
      "Ġmevcut": 2594,
      "ĠbÃ¶yle": 2595,
      "ary": 2596,
      "ĠtÃ¼k": 2597,
      "tern": 2598,
      "Ġtav": 2599,
      "ĠÃ¶lÃ¼m": 2600,
      "ihaz": 2601,
      "An": 2602,
      "ill": 2603,
      "ĠCan": 2604,
      "Ġorta": 2605,
      "zon": 2606,
      "ĠÅŁark": 2607,
      "ĠÃ¼yesi": 2608,
      "ĠTÃ¼rkÃ§e": 2609,
      "ĠkapsamÄ±nda": 2610,
      "Ġpoz": 2611,
      "TÃ¼rk": 2612,
      "Ġrak": 2613,
      "Ġdal": 2614,
      "ĠgÃ¼ney": 2615,
      "ĠfotoÄŁraf": 2616,
      "Ä±yoruz": 2617,
      "Ġpek": 2618,
      "eceÄŁini": 2619,
      "isay": 2620,
      "ustafa": 2621,
      "Bu": 2622,
      "Ġoyunc": 2623,
      "ĠGo": 2624,
      "ĠoluÅŁan": 2625,
      "Ġoy": 2626,
      "eyin": 2627,
      "Ġ50": 2628,
      "ĠyatÄ±rÄ±m": 2629,
      "Ġsab": 2630,
      "ae": 2631,
      "ografi": 2632,
      "ilmek": 2633,
      "ĠÃĸÄŁr": 2634,
      "ani": 2635,
      "ĠÅŀeh": 2636,
      "Ġ190": 2637,
      "egor": 2638,
      "ĠkullanÄ±cÄ±": 2639,
      "lisi": 2640,
      "Ġhey": 2641,
      "ĠSamsun": 2642,
      "ĠDoÄŁu": 2643,
      "ĠÄ°ran": 2644,
      "Ġherhangi": 2645,
      "ĠErdoÄŁan": 2646,
      "yle": 2647,
      "leriyle": 2648,
      "Ġalmak": 2649,
      "60": 2650,
      "ĠbaÅŁlayan": 2651,
      "Ġsinema": 2652,
      "Ġ1990": 2653,
      "liÄŁini": 2654,
      "Ġsonucu": 2655,
      "teri": 2656,
      "ĠyardÄ±mcÄ±": 2657,
      "ĠÄ°ngilizce": 2658,
      "Ġtep": 2659,
      "abancÄ±": 2660,
      "forman": 2661,
      "Ġbasketbol": 2662,
      "ĠTÃ¼m": 2663,
      "ĠDemir": 2664,
      "ĠÃ¶lÃ§": 2665,
      "kek": 2666,
      "ira": 2667,
      "ĠSosyal": 2668,
      "Ġkaybet": 2669,
      "Ġmahalledir": 2670,
      "neÄŁi": 2671,
      "EM": 2672,
      "erken": 2673,
      "ĠkuÅŁ": 2674,
      "ĠedilmiÅŁtir": 2675,
      "ĠHalk": 2676,
      "kÃ¼n": 2677,
      "Ġsem": 2678,
      "ĠSÄ±r": 2679,
      "ĠalmÄ±ÅŁtÄ±r": 2680,
      "ff": 2681,
      "irÃ¼s": 2682,
      "ĠBakanÄ±": 2683,
      "iydi": 2684,
      "Ġamac": 2685,
      "ĠbaÅŁlat": 2686,
      "ision": 2687,
      "ĠÃ¶ldÃ¼r": 2688,
      "mal": 2689,
      "ĠaÅŁaÄŁÄ±": 2690,
      "ĠdÄ±ÅŁÄ±nda": 2691,
      "nden": 2692,
      "eÄŁin": 2693,
      "hal": 2694,
      "ĠGeÃ§": 2695,
      "arÅŁ": 2696,
      "ĠFI": 2697,
      "''": 2698,
      "ĠVal": 2699,
      "ĠKurulu": 2700,
      "tay": 2701,
      "UR": 2702,
      "ĠsÄ±rada": 2703,
      "duÄŁ": 2704,
      "Ġonun": 2705,
      "ansÄ±": 2706,
      "madÄ±": 2707,
      "Ġbor": 2708,
      "ĠkatÄ±ldÄ±": 2709,
      "ĠLis": 2710,
      "ekli": 2711,
      "ekten": 2712,
      "abilecek": 2713,
      "ĠyÃ¼rÃ¼t": 2714,
      "Ġhava": 2715,
      "Ġdok": 2716,
      "lav": 2717,
      "ĠAnadolu": 2718,
      "ĠYayÄ±n": 2719,
      "enc": 2720,
      "iÅŁleri": 2721,
      "ĠJohn": 2722,
      "ĠÃ¼yeleri": 2723,
      "ĠiÅŁlet": 2724,
      "ĠBal": 2725,
      "ĠsanatÃ§Ä±": 2726,
      "Ġtransfer": 2727,
      "ons": 2728,
      "Ġtoplum": 2729,
      "ital": 2730,
      "ĠHam": 2731,
      "uvar": 2732,
      "ĠbeÅŁ": 2733,
      "ĠartÄ±k": 2734,
      "ĠYÃ¼ksek": 2735,
      "elerinde": 2736,
      "ĠamaÃ§": 2737,
      "ĠmÃ¼cadele": 2738,
      "ĠtanÄ±t": 2739,
      "abzon": 2740,
      "ĠayrÄ±": 2741,
      "ĠkulÃ¼p": 2742,
      "Ġkah": 2743,
      "lÄ±yor": 2744,
      "Ġpuan": 2745,
      "ĠgeÃ§ti": 2746,
      "eks": 2747,
      "ĠÃ§ap": 2748,
      "ĠÂ»": 2749,
      "ĠÃ¼retim": 2750,
      "Ġbilinen": 2751,
      "Ġvak": 2752,
      "Ġbirbir": 2753,
      "Ġederek": 2754,
      "ovyet": 2755,
      "Ġpop": 2756,
      "Ġ=": 2757,
      "aln": 2758,
      "ĠMes": 2759,
      "ĠyaÅŁÄ±nda": 2760,
      "day": 2761,
      "ham": 2762,
      "ona": 2763,
      "Ġ2003": 2764,
      "Ġboz": 2765,
      "akk": 2766,
      "Ġdeniz": 2767,
      "Ġuyar": 2768,
      "elerinin": 2769,
      "imdi": 2770,
      "25": 2771,
      "ÄŁÄ±nÄ±z": 2772,
      "Ġders": 2773,
      "ĠettiÄŁi": 2774,
      "ĠTV": 2775,
      "ĠhiÃ§bir": 2776,
      "Ġle": 2777,
      "ĠyÄ±lÄ±ndan": 2778,
      "iyan": 2779,
      "Ġ31": 2780,
      "isayar": 2781,
      "ĠSen": 2782,
      "ĠMustafa": 2783,
      "Ġroman": 2784,
      "emal": 2785,
      "Ġtemiz": 2786,
      "ck": 2787,
      "ĠÅŀehir": 2788,
      "Ġburada": 2789,
      "Ä±msÄ±z": 2790,
      "meni": 2791,
      "Ġsahipleri": 2792,
      "ĠSaÄŁlÄ±k": 2793,
      "ĠPh": 2794,
      "ai": 2795,
      "Ġsayesinde": 2796,
      "iteli": 2797,
      "ĠVer": 2798,
      "atif": 2799,
      "Ġsistemi": 2800,
      "Al": 2801,
      "andÄ±": 2802,
      "ĠSev": 2803,
      "ĠKÄ±": 2804,
      "ĠuÄŁr": 2805,
      "ĠSch": 2806,
      "ĠYak": 2807,
      "latform": 2808,
      "aktadÄ±r": 2809,
      "efer": 2810,
      "Ġkamp": 2811,
      "Ġgez": 2812,
      "Ġbelde": 2813,
      "uyu": 2814,
      "idae": 2815,
      "Ð¾": 2816,
      "Ġsonunda": 2817,
      "ĠÃ§alÄ±ÅŁma": 2818,
      "alnÄ±z": 2819,
      "ĠKÃ¶": 2820,
      "ekkÃ¼r": 2821,
      "ook": 2822,
      "ĠTarihi": 2823,
      "aw": 2824,
      "ĠMÃ¼dÃ¼rlÃ¼ÄŁÃ¼": 2825,
      "Ġifad": 2826,
      "meyi": 2827,
      "ĠbirkaÃ§": 2828,
      "hend": 2829,
      "ĠAfrika": 2830,
      "ebilirsiniz": 2831,
      "aÄŁÄ±t": 2832,
      "Ã¼len": 2833,
      "adÄ±r": 2834,
      "arp": 2835,
      "ick": 2836,
      "ĠMas": 2837,
      "Ġoper": 2838,
      "masÄ±nÄ±n": 2839,
      "24": 2840,
      "eral": 2841,
      "Ġkalan": 2842,
      "ĠKÃ¼r": 2843,
      "ilerini": 2844,
      "ĠÃ¼nivers": 2845,
      "iir": 2846,
      "ly": 2847,
      "ĠCom": 2848,
      "Ã¼ÄŁ": 2849,
      "mar": 2850,
      "ĠSovyet": 2851,
      "Ã¼mkÃ¼n": 2852,
      "ĠsatÄ±n": 2853,
      "ĠbulunduÄŁu": 2854,
      "ĠDe": 2855,
      "Ġcev": 2856,
      "eÄŁi": 2857,
      "ĠkeÅŁf": 2858,
      "ĠkulÃ¼b": 2859,
      "illeri": 2860,
      "ĠcanlÄ±": 2861,
      "ph": 2862,
      "Ġidar": 2863,
      "ĠHaberleri": 2864,
      "ts": 2865,
      "Ġele": 2866,
      "ĠBÃ¼yÃ¼kÅŁehir": 2867,
      "ĠÅŁeklinde": 2868,
      "duk": 2869,
      "ĠAynÄ±": 2870,
      "eÅŁil": 2871,
      "Ġgenellikle": 2872,
      "ĠyÃ¶netmen": 2873,
      "ĠMÃ¼zik": 2874,
      "sat": 2875,
      "ock": 2876,
      "ĠRec": 2877,
      "ĠarasÄ±ndaki": 2878,
      "Ġbahis": 2879,
      "elerine": 2880,
      "manÄ±": 2881,
      "Ġform": 2882,
      "ahÃ§e": 2883,
      "Ġhesap": 2884,
      "Ġkariyeri": 2885,
      "ĠBe": 2886,
      "Ġarac": 2887,
      "ĠgÃ¶renler": 2888,
      "ĠTan": 2889,
      "ĠCol": 2890,
      "Ġteh": 2891,
      "sen": 2892,
      "Ġsilah": 2893,
      "Ġ1999": 2894,
      "ĠuluslararasÄ±": 2895,
      "Ġpolis": 2896,
      "Ġyat": 2897,
      "erbay": 2898,
      "ĠKÃ¼ltÃ¼r": 2899,
      "ĠtoplantÄ±": 2900,
      "Ġdeney": 2901,
      "23": 2902,
      "ĠTrabzon": 2903,
      "ĠmÄ±": 2904,
      "ĠSÃ¼per": 2905,
      "ĠÃľl": 2906,
      "LAR": 2907,
      "Ðµ": 2908,
      "vis": 2909,
      "Ġlis": 2910,
      "ĠboÅŁ": 2911,
      "ĠAna": 2912,
      "ian": 2913,
      "Ġbes": 2914,
      "ĠÃĩocuk": 2915,
      "ĠGer": 2916,
      "ĠbaÅŁarÄ±lÄ±": 2917,
      "ÄŁÄ±n": 2918,
      "lanÄ±r": 2919,
      "ĠErkek": 2920,
      "ĠAp": 2921,
      "Ġbunun": 2922,
      "Ġ2001": 2923,
      "ĠBursa": 2924,
      "udi": 2925,
      "rin": 2926,
      "ĠtanÄ±n": 2927,
      "ĠmÃ¼mkÃ¼n": 2928,
      "Ġolsun": 2929,
      "her": 2930,
      "ĠFakÃ¼ltesi": 2931,
      "lilik": 2932,
      "ĠyÄ±llÄ±k": 2933,
      "oÃ§": 2934,
      "Ġkonusu": 2935,
      "ĠdÃ¶neminde": 2936,
      "yol": 2937,
      "Ã³": 2938,
      "Ġedil": 2939,
      "Ġiy": 2940,
      "ĠtaÅŁÄ±m": 2941,
      "ĠSÃ¶z": 2942,
      "apor": 2943,
      "Ġac": 2944,
      "etay": 2945,
      "ĠyapÄ±ldÄ±": 2946,
      "Ġpazar": 2947,
      "isel": 2948,
      "mayan": 2949,
      "ĠSeÃ§": 2950,
      "ĠYÃ¼z": 2951,
      "ĠyerleÅŁim": 2952,
      "Ġsok": 2953,
      "arken": 2954,
      "str": 2955,
      "kr": 2956,
      "Ġanda": 2957,
      "ĠÃ¶de": 2958,
      "meyen": 2959,
      "ĠPet": 2960,
      "AB": 2961,
      "imizin": 2962,
      "Ġedilir": 2963,
      "ĠJapon": 2964,
      "ĠsiyasetÃ§iler": 2965,
      "aspor": 2966,
      "Ġdef": 2967,
      "ilerine": 2968,
      "Ġkorum": 2969,
      "ĠalbÃ¼mleri": 2970,
      "Ġonu": 2971,
      "ĠMus": 2972,
      "ĠÄ°talyan": 2973,
      "din": 2974,
      "Ġgereken": 2975,
      "yar": 2976,
      "omb": 2977,
      "Ġoyuncular": 2978,
      "Ġann": 2979,
      "ĠadÄ±na": 2980,
      "ĠMur": 2981,
      "ĠFat": 2982,
      "ĠAc": 2983,
      "ĠkonuÅŁtu": 2984,
      "Ġkanal": 2985,
      "Ä°Y": 2986,
      "Ġkayb": 2987,
      "Ġsol": 2988,
      "Ġfay": 2989,
      "ĠayÄ±nda": 2990,
      "ĠNor": 2991,
      "Ã¼le": 2992,
      "ĠÄ°slam": 2993,
      "Ä±sÄ±r": 2994,
      "Ä±sÄ±ndan": 2995,
      "ner": 2996,
      "Ã¼ldÃ¼": 2997,
      "Ġcihaz": 2998,
      "oda": 2999,
      "gÃ¼r": 3000,
      "ĠyaÅŁayan": 3001,
      "Ä±za": 3002,
      "ars": 3003,
      "ebek": 3004,
      "ĠaltÄ±n": 3005,
      "Ġfutbolcudur": 3006,
      "izik": 3007,
      "Ã¶ren": 3008,
      "Ar": 3009,
      "ĠkiÅŁiler": 3010,
      "ĠinÅŁa": 3011,
      "medi": 3012,
      "luluk": 3013,
      "olog": 3014,
      "ĠÄ°spanya": 3015,
      "Ã¼mÃ¼zde": 3016,
      "ĠKam": 3017,
      "ĠAhmet": 3018,
      "Ġdep": 3019,
      "ĠJaponya": 3020,
      "ormal": 3021,
      "Ġedilm": 3022,
      "AÅŀ": 3023,
      "ĠProf": 3024,
      "ĠSo": 3025,
      "Ġdakika": 3026,
      "ĠBaÄŁ": 3027,
      "Ġprofesyonel": 3028,
      "talya": 3029,
      "omet": 3030,
      "imar": 3031,
      "burg": 3032,
      "ĠsÄ±cak": 3033,
      "40": 3034,
      "amasÄ±": 3035,
      "ĠFil": 3036,
      "ĠÃ§ocu": 3037,
      "ess": 3038,
      "ĠSul": 3039,
      "Ġ[": 3040,
      "uma": 3041,
      "ĠBl": 3042,
      "ĠÃ¼nlÃ¼": 3043,
      "ĠyarÄ±": 3044,
      "Ġmeydana": 3045,
      "tÃ¶r": 3046,
      "Ä°K": 3047,
      "meden": 3048,
      "ĠDÃ¶n": 3049,
      "Ġbelediye": 3050,
      "ĠyanÄ±nda": 3051,
      "Ä±mÄ±na": 3052,
      "are": 3053,
      "AD": 3054,
      "ĠRoma": 3055,
      "Ġperforman": 3056,
      "rafik": 3057,
      "erbaycan": 3058,
      "ĠbiÃ§": 3059,
      "Ä±yorum": 3060,
      "mesini": 3061,
      "yasÄ±": 3062,
      "ight": 3063,
      "Ä±rÄ±": 3064,
      "cort": 3065,
      "ĠaÃ§Ä±l": 3066,
      "ilerek": 3067,
      "Ġisteyen": 3068,
      "Ġener": 3069,
      "ĠBun": 3070,
      "Ġdair": 3071,
      "ĠsayÄ±sÄ±": 3072,
      "ĠYardÄ±m": 3073,
      "ĠolmuÅŁ": 3074,
      "ĠkiÅŁinin": 3075,
      "lulu": 3076,
      "ĠkaldÄ±": 3077,
      "ĠMilli": 3078,
      "Ġro": 3079,
      "Ġyemek": 3080,
      "ĠdoÄŁdu": 3081,
      "Ġotur": 3082,
      "Ġmek": 3083,
      "ĠsonrasÄ±": 3084,
      "ĠkÃ¶yleri": 3085,
      "dÃ¼k": 3086,
      "Ġip": 3087,
      "ĠOlimpiyatlarÄ±": 3088,
      "ĠamacÄ±yla": 3089,
      "asa": 3090,
      "ĠBor": 3091,
      "ica": 3092,
      "ĠParis": 3093,
      "ĠÅŁehirler": 3094,
      "ĠTay": 3095,
      "Ġ1998": 3096,
      "ĠOyunlarÄ±": 3097,
      "Ġbenim": 3098,
      "Ġ1992": 3099,
      "Ġcinsidir": 3100,
      "ĠsayÄ±da": 3101,
      "ĠÃ¶ner": 3102,
      "ĠÃĩok": 3103,
      "kem": 3104,
      "Ġhastan": 3105,
      "ĠyapmÄ±ÅŁtÄ±r": 3106,
      "Ġsaha": 3107,
      "ĠgÃ¼r": 3108,
      "Ġduyur": 3109,
      "ĠÃ¶ldÃ¼": 3110,
      "mesine": 3111,
      "Ġsize": 3112,
      "rop": 3113,
      "Ġyana": 3114,
      "ĠDiÄŁer": 3115,
      "ĠIs": 3116,
      "ĠKah": 3117,
      "ĠihtiyaÃ§": 3118,
      "layÄ±": 3119,
      "ĠalÄ±ÅŁ": 3120,
      "ĠÃ¶ÄŁrenc": 3121,
      "Ġdolar": 3122,
      "ĠFor": 3123,
      "line": 3124,
      "erbahÃ§e": 3125,
      "ĠkÃ¶ydÃ¼r": 3126,
      "ĠdoÄŁr": 3127,
      "Ġnumar": 3128,
      "nuv": 3129,
      "ĠilÃ§esinde": 3130,
      "Ã¼mÃ¼ÅŁ": 3131,
      "asaray": 3132,
      "ĠadÄ±nÄ±": 3133,
      "ĠÃľr": 3134,
      "Ġhale": 3135,
      "urum": 3136,
      "Ġverildi": 3137,
      "ĠBit": 3138,
      "go": 3139,
      "Ġmu": 3140,
      "Ġmotor": 3141,
      "Ġsiyasi": 3142,
      "Ġmalz": 3143,
      "ash": 3144,
      "ĠbakÄ±m": 3145,
      "atasaray": 3146,
      "ĠdeÄŁildir": 3147,
      "brÄ±s": 3148,
      "Ġbunu": 3149,
      "ĠadÄ±m": 3150,
      "ĠSak": 3151,
      "kar": 3152,
      "ĠdoÄŁal": 3153,
      "Ġlider": 3154,
      "ÄŁine": 3155,
      "tor": 3156,
      "Ġ1996": 3157,
      "ĠÃ§Ã¶zÃ¼m": 3158,
      "emen": 3159,
      "ĠHe": 3160,
      "itan": 3161,
      "tand": 3162,
      "uklu": 3163,
      "ĠteÅŁekkÃ¼r": 3164,
      "Ġ40": 3165,
      "Ġsona": 3166,
      "Ġseviy": 3167,
      "ĠAsya": 3168,
      "ĠitibarÄ±yla": 3169,
      "Ġ1993": 3170,
      "ĠGrub": 3171,
      "cÄ±lÄ±k": 3172,
      "hendis": 3173,
      "ĠkatkÄ±": 3174,
      "Ġotomobil": 3175,
      "ĠDerneÄŁi": 3176,
      "ĠÃ¼lke": 3177,
      "bo": 3178,
      "Ġ1994": 3179,
      "ĠÃĩalÄ±ÅŁ": 3180,
      "abet": 3181,
      "Ġ1980": 3182,
      "Ġdon": 3183,
      "ĠGrup": 3184,
      "ĠolmadÄ±": 3185,
      "ĠBank": 3186,
      "ĠÄ°nsan": 3187,
      "ĠyÄ±k": 3188,
      "ĠalanÄ±": 3189,
      "ĠÃ¶rgÃ¼t": 3190,
      "ĠoÄŁlu": 3191,
      "likleri": 3192,
      "ĠgÃ¼ncel": 3193,
      "gul": 3194,
      "Ġistem": 3195,
      "Ġ189": 3196,
      "Ġner": 3197,
      "Ġcins": 3198,
      "Ġisimli": 3199,
      "keri": 3200,
      "Ġoran": 3201,
      "ĠiliÅŁkin": 3202,
      "ows": 3203,
      "ĠKim": 3204,
      "ĠSe": 3205,
      "ĠsaldÄ±rÄ±": 3206,
      "tepe": 3207,
      "Ġ1995": 3208,
      "Ġtoprak": 3209,
      "ĠAzerbaycan": 3210,
      "lanmasÄ±": 3211,
      "ĠyazÄ±": 3212,
      "ĠbaÅŁarÄ±": 3213,
      "Ġmezun": 3214,
      "Ð¸": 3215,
      "Ġpolitik": 3216,
      "gun": 3217,
      "Ġsoru": 3218,
      "Ġpr": 3219,
      "alim": 3220,
      "ĠCon": 3221,
      "iÅŁi": 3222,
      "Ġ1997": 3223,
      "ĠbaÅŁkanÄ±": 3224,
      "Ġekran": 3225,
      "Ġnedenle": 3226,
      "Ġtiyatro": 3227,
      "Ġtart": 3228,
      "Ġpozisyon": 3229,
      "ĠÃ¶rnek": 3230,
      "Ä±rken": 3231,
      "iklet": 3232,
      "Ġpan": 3233,
      "lÄ±ÄŁÄ±nÄ±": 3234,
      "ĠRob": 3235,
      "Ä°M": 3236,
      "etler": 3237,
      "ĠGÃ¼ven": 3238,
      "Ġbitir": 3239,
      "Ġtalep": 3240,
      "acaÄŁÄ±z": 3241,
      "alarÄ±nÄ±": 3242,
      "imli": 3243,
      "Ġhukuk": 3244,
      "LER": 3245,
      "ĠSÃ¼r": 3246,
      "eyn": 3247,
      "Ġortam": 3248,
      "Ġhiss": 3249,
      "196": 3250,
      "ifa": 3251,
      "altÄ±": 3252,
      "ĠLond": 3253,
      "ĠÃ¶ÄŁrenciler": 3254,
      "emin": 3255,
      "aul": 3256,
      "adaki": 3257,
      "aÄŁa": 3258,
      "ĠYah": 3259,
      "ĠfamilyasÄ±na": 3260,
      "eksiyon": 3261,
      "iÄŁi": 3262,
      "tim": 3263,
      "ĠGr": 3264,
      "ĠResmi": 3265,
      "Ġuzman": 3266,
      "bakan": 3267,
      "Ġlig": 3268,
      "ĠsÃ¶zleÅŁ": 3269,
      "ovision": 3270,
      "Ġbeklen": 3271,
      "Ġhaline": 3272,
      "Ġmetre": 3273,
      "ĠÃĩek": 3274,
      "ĠdÃ¶nemde": 3275,
      "ĠGÃ¼l": 3276,
      "Ġbaz": 3277,
      "ĠMat": 3278,
      "imize": 3279,
      "Ã¶v": 3280,
      "sunuz": 3281,
      "Ġmadalya": 3282,
      "Ġkork": 3283,
      "ĠErz": 3284,
      "rail": 3285,
      "ĠyapmÄ±ÅŁ": 3286,
      "Ä±sÄ±na": 3287,
      "masÄ±nda": 3288,
      "Ġgrubu": 3289,
      "Ġbiridir": 3290,
      "ĠterÃ¶r": 3291,
      "ĠEurovision": 3292,
      "ĠtasarÄ±m": 3293,
      "Ġcm": 3294,
      "ladÄ±ÄŁÄ±": 3295,
      "ĠFin": 3296,
      "ĠGazi": 3297,
      "ĠÄ°k": 3298,
      "ĠMed": 3299,
      "Ġderec": 3300,
      "ĠuÃ§ak": 3301,
      "Ġalign": 3302,
      "Ä±nar": 3303,
      "ĠBrez": 3304,
      "Ġedecek": 3305,
      "ĠAÃ§Ä±k": 3306,
      "ĠadlandÄ±r": 3307,
      "ĠasÄ±llÄ±": 3308,
      "iyah": 3309,
      "ĠFIFA": 3310,
      "ĠÄ°kin": 3311,
      "ung": 3312,
      "Ġherkes": 3313,
      "ĠFeder": 3314,
      "Ġoyunu": 3315,
      "Ġemek": 3316,
      "ĠBat": 3317,
      "Ã»met": 3318,
      "ĠTaÅŁ": 3319,
      "ĠÃ¼Ã§Ã¼ncÃ¼": 3320,
      "Ã§ak": 3321,
      "ĠSil": 3322,
      "Ġgerekli": 3323,
      "ĠCumhurbaÅŁkanÄ±": 3324,
      "ĠKÄ±brÄ±s": 3325,
      "ele": 3326,
      "Ġhik": 3327,
      "ze": 3328,
      "ĠFestiv": 3329,
      "Ġmedya": 3330,
      "Ġaktar": 3331,
      "80": 3332,
      "ĠyalnÄ±z": 3333,
      "ĠtartÄ±ÅŁ": 3334,
      "imde": 3335,
      "Ġmerkezli": 3336,
      "Ġâ": 3337,
      "rosu": 3338,
      "Ġzarar": 3339,
      "ĠVe": 3340,
      "Ġko": 3341,
      "ĠTab": 3342,
      "ĠAydÄ±n": 3343,
      "raman": 3344,
      "ĠeleÅŁtir": 3345,
      "ĠSor": 3346,
      "Ġsavun": 3347,
      "mada": 3348,
      "iden": 3349,
      "ĠArt": 3350,
      "ĠProj": 3351,
      "ĠtaÅŁÄ±n": 3352,
      "enn": 3353,
      "ĠyÄ±ldÄ±z": 3354,
      "ĠMÃ¼s": 3355,
      "ĠkullanÄ±m": 3356,
      "kenin": 3357,
      "ĠgÃ¶rdÃ¼": 3358,
      "ĠhastalÄ±k": 3359,
      "ĠVol": 3360,
      "avi": 3361,
      "krayn": 3362,
      "tul": 3363,
      "stit": 3364,
      "Ġiler": 3365,
      "deniz": 3366,
      "atÄ±ÅŁ": 3367,
      "Ġetkil": 3368,
      "Ġdetay": 3369,
      "Ġham": 3370,
      "Ä±yÄ±": 3371,
      "alara": 3372,
      "ft": 3373,
      "Ġken": 3374,
      "Ġab": 3375,
      "inize": 3376,
      "Ġhalinde": 3377,
      "ĠÃ¶ÄŁretmen": 3378,
      "ĠÅŁarkÄ±larÄ±": 3379,
      "ndeki": 3380,
      "ayi": 3381,
      "ĠTeknik": 3382,
      "mÃ®": 3383,
      "ĠiÅŁaret": 3384,
      "ĠMod": 3385,
      "ĠAllah": 3386,
      "ĠGalatasaray": 3387,
      "ĠCHP": 3388,
      "mÄ±zÄ±": 3389,
      "ĠGu": 3390,
      "alÄ±m": 3391,
      "laÅŁtÄ±r": 3392,
      "tiÄŁini": 3393,
      "Ä±sÄ±nÄ±": 3394,
      "mel": 3395,
      "etin": 3396,
      "ĠAlan": 3397,
      "uÄŁ": 3398,
      "ĠPat": 3399,
      "ĠsaÃ§": 3400,
      "Ġbat": 3401,
      "aka": 3402,
      "ĠsonrasÄ±nda": 3403,
      "Ä°n": 3404,
      "ĠÄ°sveÃ§": 3405,
      "ĠHaberler": 3406,
      "Ġstr": 3407,
      "els": 3408,
      "ĠFinal": 3409,
      "05": 3410,
      "Ġ1991": 3411,
      "unt": 3412,
      "ĠAntalya": 3413,
      "lerdir": 3414,
      "ĠArap": 3415,
      "ĠÃ§alÄ±ÅŁmalarÄ±": 3416,
      "Ġbilgiler": 3417,
      "Ġsebep": 3418,
      "ĠSuriye": 3419,
      "Ġsonuc": 3420,
      "ĠgeÃ§miÅŁ": 3421,
      "Ġyarar": 3422,
      "26": 3423,
      "Ġsezonunda": 3424,
      "hat": 3425,
      "ĠFenerbahÃ§e": 3426,
      "Ġbiraz": 3427,
      "Ġticaret": 3428,
      "ĠKil": 3429,
      "Ġplatform": 3430,
      "astik": 3431,
      "iktaÅŁ": 3432,
      "Ġkapat": 3433,
      "ĠgÃ¼Ã§lÃ¼": 3434,
      "Ġgerekir": 3435,
      "ĠdÃ¼ÅŁÃ¼k": 3436,
      "ĠAma": 3437,
      "ded": 3438,
      "Ġoluyor": 3439,
      "ĠÃľniversit": 3440,
      "SB": 3441,
      "antin": 3442,
      "Ġdevr": 3443,
      "Ġdizileri": 3444,
      "bar": 3445,
      "Ġperson": 3446,
      "ĠKara": 3447,
      "ĠOyuncu": 3448,
      "ĠEski": 3449,
      "ĠsaÄŁlamak": 3450,
      "rag": 3451,
      "ĠalanÄ±nda": 3452,
      "ĠYÃ¶netim": 3453,
      "Ġtekli": 3454,
      "ĠbaÄŁÄ±msÄ±z": 3455,
      "Ġyerel": 3456,
      "ĠBatÄ±": 3457,
      "Ġtr": 3458,
      "imizi": 3459,
      "LI": 3460,
      "35": 3461,
      "Ġyani": 3462,
      "Ġteslim": 3463,
      "ĠYol": 3464,
      "yap": 3465,
      "Ġdeste": 3466,
      "ĠartÄ±r": 3467,
      "Ġdar": 3468,
      "ndan": 3469,
      "ris": 3470,
      "Ġ1970": 3471,
      "ĠÄ°mparatorluÄŁu": 3472,
      "Ġbizim": 3473,
      "ĠÃľy": 3474,
      "ĠBo": 3475,
      "Ġayak": 3476,
      "Ġizin": 3477,
      "ĠMich": 3478,
      "ĠTun": 3479,
      "ĠGÃ¼ncelleme": 3480,
      "ĠhayatÄ±nÄ±": 3481,
      "har": 3482,
      "ĠalÄ±ndÄ±": 3483,
      "ĠalÄ±nan": 3484,
      "ĠDon": 3485,
      "ĠNot": 3486,
      "oks": 3487,
      "Ġkesin": 3488,
      "ĠMÃ¼": 3489,
      "gisi": 3490,
      "Ġedin": 3491,
      "ĠbasÄ±n": 3492,
      "Ġ*": 3493,
      "Ġbenzer": 3494,
      "Ġto": 3495,
      "edeki": 3496,
      "ĠEf": 3497,
      "Ġdurumda": 3498,
      "lev": 3499,
      "ebi": 3500,
      "Ġ>": 3501,
      "za": 3502,
      "ĠanlamÄ±na": 3503,
      "ÄŁa": 3504,
      "Ġmesaj": 3505,
      "bilir": 3506,
      "ĠOd": 3507,
      "ĠsÃ¼reÃ§": 3508,
      "liÄŁinde": 3509,
      "Ġtamamen": 3510,
      "ĠKoca": 3511,
      "tion": 3512,
      "manÄ±z": 3513,
      "ĠiletiÅŁim": 3514,
      "ĠAvustr": 3515,
      "ous": 3516,
      "Ġyurt": 3517,
      "ĠmÃ¼ÅŁter": 3518,
      "ĠSah": 3519,
      "ĠbaÅŁÄ±na": 3520,
      "ĠeÄŁit": 3521,
      "atÃ¼rk": 3522,
      "ĠDiy": 3523,
      "Ġfakat": 3524,
      "Ġbilgisayar": 3525,
      "ĠYarÄ±ÅŁmasÄ±": 3526,
      "ĠkullandÄ±": 3527,
      "45": 3528,
      "Ġsoy": 3529,
      "ĠÅŁart": 3530,
      "ĠÃ§alÄ±ÅŁtÄ±": 3531,
      "artesi": 3532,
      "ĠbaÅŁÄ±nda": 3533,
      "):": 3534,
      "ĠverdiÄŁi": 3535,
      "ĠsaÄŁlay": 3536,
      "Ġ1989": 3537,
      "ger": 3538,
      "ĠTok": 3539,
      "ilim": 3540,
      "Ġmadal": 3541,
      "ĠMark": 3542,
      "ĠMahall": 3543,
      "ĠNo": 3544,
      "Ġolsa": 3545,
      "Ġyum": 3546,
      "dim": 3547,
      "ÃŃ": 3548,
      "ĠBab": 3549,
      "ĠkullanÄ±lÄ±r": 3550,
      "Ġdoktor": 3551,
      "ĠPaÅŁa": 3552,
      "ĠMel": 3553,
      "ĠVan": 3554,
      "ĠoynadÄ±": 3555,
      "ĠDeÄŁ": 3556,
      "ĠyaptÄ±r": 3557,
      "27": 3558,
      "ĠgÃ¼reÅŁ": 3559,
      "yÃ¼z": 3560,
      "ĠyabancÄ±": 3561,
      "ĠUkrayn": 3562,
      "Ġgec": 3563,
      "Ġgirdi": 3564,
      "alarÄ±nÄ±n": 3565,
      "iyeti": 3566,
      "ĠdÃ¼zey": 3567,
      "ĠHastan": 3568,
      "Ġkategor": 3569,
      "Ġalarak": 3570,
      "ĠetmiÅŁtir": 3571,
      "ĠgÃ¼venlik": 3572,
      "ĠPortekiz": 3573,
      "ĠgÃ¶Ã§": 3574,
      "03": 3575,
      "mey": 3576,
      "Ġilan": 3577,
      "enter": 3578,
      "Ġtarz": 3579,
      "best": 3580,
      "ĠMor": 3581,
      "lenmiÅŁ": 3582,
      "Ġesn": 3583,
      "ĠdÃ¼nyanÄ±n": 3584,
      "ĠÃ¶nceki": 3585,
      "ĠyaygÄ±n": 3586,
      "Ġsp": 3587,
      "Ġanal": 3588,
      "ĠÅŀah": 3589,
      "ĠyayÄ±nlanan": 3590,
      "ĠMÃ¼dÃ¼rÃ¼": 3591,
      "daÄŁ": 3592,
      "ĠiÃ§eren": 3593,
      "Ġmilletvekilleri": 3594,
      "ĠsiyasetÃ§i": 3595,
      "Ġfik": 3596,
      "Ã¼yle": 3597,
      "sak": 3598,
      "ĠkÃ¶tÃ¼": 3599,
      "ĠAlbÃ¼m": 3600,
      "ĠKrallÄ±k": 3601,
      "ĠgÃ¼nlÃ¼k": 3602,
      "Ġ1988": 3603,
      "ĠGÃ¶z": 3604,
      "lerce": 3605,
      "ĠGÃ¶l": 3606,
      "ĠkÄ±": 3607,
      "ĠÃĩev": 3608,
      "ogle": 3609,
      "ĠyÄ±llarÄ±nda": 3610,
      "ĠyaÅŁan": 3611,
      "Ġdel": 3612,
      "ĠgÃ¶l": 3613,
      "09": 3614,
      "The": 3615,
      "uldu": 3616,
      "tÄ±m": 3617,
      "ĠtÃ¼ket": 3618,
      "ĠGran": 3619,
      "28": 3620,
      "Ġbelg": 3621,
      "hi": 3622,
      "sim": 3623,
      "Ġteknoloj": 3624,
      "nik": 3625,
      "dÄ±zÄ±": 3626,
      "01": 3627,
      "Ġkamu": 3628,
      "aket": 3629,
      "lÄ±nda": 3630,
      "isyen": 3631,
      "ĠÃĩaÄŁ": 3632,
      "ĠÄ°ki": 3633,
      "ĠtÄ±k": 3634,
      "ÄŁim": 3635,
      "Ġ188": 3636,
      "atistik": 3637,
      "ilya": 3638,
      ".,": 3639,
      "ilt": 3640,
      "DA": 3641,
      "giler": 3642,
      "ĠBeÅŁiktaÅŁ": 3643,
      "Ġuygulan": 3644,
      "ld": 3645,
      "ĠDÃ¼z": 3646,
      "ĠgÃ¶rÃ¼ntÃ¼": 3647,
      "dÄ±ktan": 3648,
      "ĠyÄ±llarda": 3649,
      "Ġvur": 3650,
      "gileri": 3651,
      "lenir": 3652,
      "ĠÄ°kinci": 3653,
      "lenmiÅŁtir": 3654,
      "Ġ187": 3655,
      "Ġrapor": 3656,
      "Ġcivil": 3657,
      "08": 3658,
      "ĠÄ°r": 3659,
      "ĠbaÅŁken": 3660,
      "lenme": 3661,
      "meleri": 3662,
      "Ġparish": 3663,
      "ĠFo": 3664,
      "ĠTat": 3665,
      "ingle": 3666,
      "Ġboyut": 3667,
      "ĠkeÅŁfed": 3668,
      "Ġserbest": 3669,
      "Ġbeyaz": 3670,
      "ĠvardÄ±": 3671,
      "ĠÃĸdÃ¼lleri": 3672,
      "Ġ1987": 3673,
      "Ġkonum": 3674,
      "ahim": 3675,
      "ĠaltÄ±na": 3676,
      "07": 3677,
      "ĠVak": 3678,
      "etik": 3679,
      "makta": 3680,
      "ĠÅŀirket": 3681,
      "06": 3682,
      "Ġperformans": 3683,
      "orex": 3684,
      "ive": 3685,
      "ĠedilmiÅŁ": 3686,
      "idi": 3687,
      "iÃ§ek": 3688,
      "ĠÃ§arp": 3689,
      "Ġkayn": 3690,
      "ĠHizmet": 3691,
      "Ġfayd": 3692,
      "row": 3693,
      "Ã¼me": 3694,
      "onomi": 3695,
      "ĠBaÅŁkanlÄ±ÄŁÄ±": 3696,
      "ÃľN": 3697,
      "Ġetmektedir": 3698,
      "Ġ1986": 3699,
      "alarÄ±na": 3700,
      "engin": 3701,
      "ÄŁÄ±m": 3702,
      "gus": 3703,
      "Ä°S": 3704,
      "Ġdurumu": 3705,
      "ĠSiv": 3706,
      "Ġbelli": 3707,
      "bey": 3708,
      "indows": 3709,
      "ĠÃ§al": 3710,
      "ĠsaÄŁlam": 3711,
      "Ġnes": 3712,
      "Ġcam": 3713,
      "ĠGrubu": 3714,
      "ĠaÃ§Ä±klamada": 3715,
      "Ġnet": 3716,
      "ĠKemal": 3717,
      "Ġgiz": 3718,
      "ĠMe": 3719,
      "ĠyaptÄ±k": 3720,
      "Ã§ileri": 3721,
      "Ġtest": 3722,
      "ĠPan": 3723,
      "macÄ±": 3724,
      "ÄŁÄ±na": 3725,
      "04": 3726,
      "isar": 3727,
      "ildiÄŁi": 3728,
      "col": 3729,
      "29": 3730,
      "aklÄ±": 3731,
      "alÄ±ÄŁÄ±": 3732,
      "ĠyapÄ±lacak": 3733,
      "ĠDemokr": 3734,
      "ĠaÃ§Ä±sÄ±ndan": 3735,
      "ink": 3736,
      "ĠKariy": 3737,
      "UN": 3738,
      "neÄŁin": 3739,
      "ĠÃľÃ§": 3740,
      "ĠBÃ¶lÃ¼m": 3741,
      "IR": 3742,
      "lad": 3743,
      "ĠMÄ±sÄ±r": 3744,
      "Ġsonraki": 3745,
      "ĠAraÅŁtÄ±r": 3746,
      "ĠbÃ¶lgesinde": 3747,
      "Ġ1960": 3748,
      "ĠsÃ¼rekli": 3749,
      "shire": 3750,
      "Ġgalak": 3751,
      "tak": 3752,
      "Ġkazanan": 3753,
      "Ġmec": 3754,
      "Ġunut": 3755,
      "vat": 3756,
      "tic": 3757,
      "menin": 3758,
      "ames": 3759,
      "old": 3760,
      "lÄ±kla": 3761,
      "arlar": 3762,
      "Ġre": 3763,
      "asay": 3764,
      "ĠDil": 3765,
      "Ġmakin": 3766,
      "ĠAvustur": 3767,
      "ĠolacaktÄ±r": 3768,
      "sÄ±nÄ±z": 3769,
      "Ġtarihleri": 3770,
      "Ġistiyor": 3771,
      "33": 3772,
      "ĠoluÅŁturulan": 3773,
      "ĠateÅŁ": 3774,
      "Ã¢n": 3775,
      "ĠMilletvek": 3776,
      "lov": 3777,
      "Ġmin": 3778,
      "ĠalÄ±yor": 3779,
      "eybol": 3780,
      "AP": 3781,
      "ane": 3782,
      "Ġkomut": 3783,
      "ĠÃ¼cretsiz": 3784,
      "AC": 3785,
      "ĠAtatÃ¼rk": 3786,
      "ĠsoÄŁ": 3787,
      "ame": 3788,
      "Ġdizisi": 3789,
      "liler": 3790,
      "ĠAdana": 3791,
      "au": 3792,
      "ĠarasÄ±": 3793,
      "ĠMez": 3794,
      "Ġveri": 3795,
      "Ġekonomik": 3796,
      "ĠFer": 3797,
      "Â²": 3798,
      "illa": 3799,
      "dal": 3800,
      "iddet": 3801,
      "ĠLondra": 3802,
      "ĠTw": 3803,
      "ĠYunanistan": 3804,
      "ĠSultan": 3805,
      "Ġmilyar": 3806,
      "ĠList": 3807,
      "masÄ±yla": 3808,
      "Ġismi": 3809,
      "ĠÄ°sk": 3810,
      "Ġ2023": 3811,
      "Ã§esi": 3812,
      "izasyon": 3813,
      "ĠCez": 3814,
      "ĠÄ°srail": 3815,
      "cularÄ±": 3816,
      "Ġma": 3817,
      "ijital": 3818,
      "ukarÄ±": 3819,
      "Ġdek": 3820,
      "OS": 3821,
      "Ġgeliyor": 3822,
      "ĠetmiÅŁ": 3823,
      "ĠChar": 3824,
      "ĠWeb": 3825,
      "ĠKore": 3826,
      "Ġmat": 3827,
      "Ä°Z": 3828,
      "Ġkaydet": 3829,
      "AZ": 3830,
      "Ġaraya": 3831,
      "ĠAkdeniz": 3832,
      "ĠtaÅŁÄ±y": 3833,
      "Ġmutf": 3834,
      "ĠsÃ¼rec": 3835,
      "illiam": 3836,
      "Ġgelecek": 3837,
      "Ġyeri": 3838,
      "ier": 3839,
      "ÑĢ": 3840,
      "Ġvurg": 3841,
      "Ġderece": 3842,
      "alandÄ±": 3843,
      "Ä°T": 3844,
      "liyor": 3845,
      "Ġcep": 3846,
      "ĠMÃ¼slÃ¼m": 3847,
      "Ġdos": 3848,
      "ĠÃ§Ä±kÄ±ÅŁlÄ±": 3849,
      "ĠSonuÃ§": 3850,
      "inÃ§": 3851,
      "sta": 3852,
      "umlar": 3853,
      "Ġsezonu": 3854,
      "Ġyolu": 3855,
      "ĠalbÃ¼mÃ¼": 3856,
      "osta": 3857,
      "ĠÃ§evir": 3858,
      ".)": 3859,
      "Ġrad": 3860,
      "esindeki": 3861,
      "ĠKÄ±zÄ±l": 3862,
      "orld": 3863,
      "ene": 3864,
      "anÄ±ÅŁ": 3865,
      "Ġ!": 3866,
      "isa": 3867,
      "Ġelektrik": 3868,
      "umhur": 3869,
      "ĠÅŁah": 3870,
      "ĠSey": 3871,
      "ĠTor": 3872,
      "Ġcid": 3873,
      "blem": 3874,
      "ĠCam": 3875,
      "Ġkart": 3876,
      "veriÅŁ": 3877,
      "Ð½": 3878,
      "Ġnak": 3879,
      "ĠDur": 3880,
      "Ġmalzem": 3881,
      "aceae": 3882,
      "Ġgerekiyor": 3883,
      "tÃ¼d": 3884,
      "ĠPazar": 3885,
      "Ġverir": 3886,
      "Ġ1928": 3887,
      "Ġmiktar": 3888,
      "ĠMo": 3889,
      "ĠÃ¼lkenin": 3890,
      "Ġ...": 3891,
      "ĠResim": 3892,
      "meli": 3893,
      "Ġ+": 3894,
      "Ġlisans": 3895,
      "eceÄŁiniz": 3896,
      "ĠAkadem": 3897,
      "niyet": 3898,
      "ĠBugÃ¼n": 3899,
      "ĠTakÄ±m": 3900,
      "Ġotel": 3901,
      "ladÄ±k": 3902,
      "erler": 3903,
      "ĠHaf": 3904,
      "ĠYorum": 3905,
      "elerinden": 3906,
      "ĠseÃ§enek": 3907,
      "layarak": 3908,
      "ĠEÄŁer": 3909,
      "ĠSc": 3910,
      "DE": 3911,
      "Ġkuvvet": 3912,
      "....": 3913,
      "Ġvol": 3914,
      "Ġadres": 3915,
      "ĠHava": 3916,
      "ĠKitap": 3917,
      "Ã¤": 3918,
      "Ä±larak": 3919,
      "ĠhatÄ±r": 3920,
      "Ġnok": 3921,
      "ĠKÄ±s": 3922,
      "ĠKÃ¼Ã§Ã¼k": 3923,
      "Ġgece": 3924,
      "Ġdakik": 3925,
      "tÃ¼l": 3926,
      "ĠdaÄŁÄ±t": 3927,
      "Ġfil": 3928,
      "red": 3929,
      "ĠGÃ¶": 3930,
      "ĠDi": 3931,
      "ĠRoman": 3932,
      "Ġgem": 3933,
      "Ä±sÄ±nÄ±n": 3934,
      "rac": 3935,
      "ĠaÃ§Ä±kladÄ±": 3936,
      "ĠBazÄ±": 3937,
      "ĠtÃ¼rlÃ¼": 3938,
      "Ġ1984": 3939,
      "hane": 3940,
      "ĠÃĩÃ¼nkÃ¼": 3941,
      "Ġism": 3942,
      "ĠTam": 3943,
      "ĠProgram": 3944,
      "ĠKullan": 3945,
      "Ġhap": 3946,
      "Ä±nÄ±zÄ±": 3947,
      "Ã¢r": 3948,
      "Ġetkinlik": 3949,
      "Ġbilm": 3950,
      "lÄ±ÄŁÄ±na": 3951,
      "ĠHollanda": 3952,
      "ĠÅŁÃ¶yle": 3953,
      "ĠyÃ¶nÃ¼nde": 3954,
      "Ġdavran": 3955,
      "atur": 3956,
      "kÃ¶y": 3957,
      "ĠyaÅŁanan": 3958,
      "ĠsaÄŁlar": 3959,
      "oft": 3960,
      "ĠÄ°lÃ§e": 3961,
      "ĠMin": 3962,
      "ĠmÃ¼s": 3963,
      "mÄ±ÅŁtÄ±": 3964,
      "Ġaskeri": 3965,
      "Ġhangi": 3966,
      "span": 3967,
      "ĠyazÄ±lÄ±m": 3968,
      "Ġkelim": 3969,
      "ĠyÄ±lÄ±na": 3970,
      "amadÄ±": 3971,
      "acaÄŁÄ±na": 3972,
      "taki": 3973,
      "ayla": 3974,
      "lenmesi": 3975,
      "ersiz": 3976,
      "ĠSiyas": 3977,
      "Ġsonucunda": 3978,
      "ÃľR": 3979,
      "Ġah": 3980,
      "ĠÃ§oÄŁu": 3981,
      "ĠYerel": 3982,
      "ullah": 3983,
      "ĠDaÄŁ": 3984,
      "ĠPark": 3985,
      "Ġcevap": 3986,
      "Ġkem": 3987,
      "Ġforma": 3988,
      "02": 3989,
      "ersin": 3990,
      "ĠÃľn": 3991,
      "amÄ±z": 3992,
      "Ġoperasyon": 3993,
      "ain": 3994,
      "ĠBot": 3995,
      "Ä±da": 3996,
      "langÄ±": 3997,
      "ĠEÅŁ": 3998,
      "ilerinin": 3999,
      "ĠAngel": 4000,
      "iÅŁehir": 4001,
      "rem": 4002,
      "ĠhÃ¼c": 4003,
      "ĠUzun": 4004,
      "ĠRad": 4005,
      "Ġzorunda": 4006,
      "tandart": 4007,
      "ĠkararÄ±": 4008,
      "ĠKuvvet": 4009,
      "baÅŁÄ±": 4010,
      "ĠFestivali": 4011,
      "Ġulusal": 4012,
      "ple": 4013,
      "ĠWindows": 4014,
      "ĠHukuk": 4015,
      "ĠBin": 4016,
      "asal": 4017,
      "Ġnormal": 4018,
      "elerden": 4019,
      "asayfa": 4020,
      "sÄ±n": 4021,
      "Ġop": 4022,
      "ezi": 4023,
      "ola": 4024,
      "Ġbelirtti": 4025,
      "ĠUnivers": 4026,
      "ĠDef": 4027,
      "ĠWilliam": 4028,
      "ĠKulÃ¼p": 4029,
      "Ġkural": 4030,
      "Ġkaf": 4031,
      "add": 4032,
      "ĠSistem": 4033,
      "ho": 4034,
      "Ġiddia": 4035,
      "Ġbulunuyor": 4036,
      "Ġortal": 4037,
      "ehri": 4038,
      "ĠBelediy": 4039,
      "Bir": 4040,
      "ĠÃĸzellikle": 4041,
      "ĠGÃ¼zel": 4042,
      "pek": 4043,
      "ĠBoy": 4044,
      "36": 4045,
      "Ã¼ndeki": 4046,
      "Ġbal": 4047,
      "Ġbirey": 4048,
      "ohbet": 4049,
      "ĠBÃ¶yle": 4050,
      "uel": 4051,
      "ayacak": 4052,
      "ĠgÃ¶steren": 4053,
      "kel": 4054,
      "Ġmens": 4055,
      "Ġseslendir": 4056,
      "Ġbirisi": 4057,
      "Ġfizik": 4058,
      "Ġ1982": 4059,
      "Ġetkili": 4060,
      "acÄ±lÄ±k": 4061,
      "Ġmesaf": 4062,
      "asi": 4063,
      "II": 4064,
      "gÃ¼": 4065,
      "enÃ¼z": 4066,
      "Ġkum": 4067,
      "ĠMahallesi": 4068,
      "ĠÅŁehri": 4069,
      "emizde": 4070,
      "luÄŁunda": 4071,
      "ĠkoÅŁul": 4072,
      "EFA": 4073,
      "ĠKend": 4074,
      "ĠgiriÅŁim": 4075,
      "ĠSayfa": 4076,
      "ille": 4077,
      "Ġbelirten": 4078,
      "uar": 4079,
      "Ġiken": 4080,
      "ebil": 4081,
      "Ġbest": 4082,
      "ĠStr": 4083,
      "Ġona": 4084,
      "ĠYÃ¶net": 4085,
      "ĠYen": 4086,
      "ĠRo": 4087,
      "ori": 4088,
      "ĠyÃ¼zden": 4089,
      "aÄŁan": 4090,
      "ĠMillÃ®": 4091,
      "ĠKadÄ±nlar": 4092,
      "ĠCem": 4093,
      "ĠOp": 4094,
      "Ġprot": 4095,
      "44": 4096,
      "Ø§": 4097,
      "Ġkurtar": 4098,
      "ĠMaÃ§": 4099,
      "Ġolun": 4100,
      "Ġsizin": 4101,
      "ĠdirektÃ¶rleri": 4102,
      "Ġ1985": 4103,
      "elikle": 4104,
      "istler": 4105,
      "ment": 4106,
      "ĠyazarlarÄ±": 4107,
      "Ġbize": 4108,
      "ĠbaÅŁvuru": 4109,
      "Ġbank": 4110,
      "edim": 4111,
      "eld": 4112,
      "ax": 4113,
      "ĠÃ¶ÄŁretim": 4114,
      "ĠHÃ¼s": 4115,
      "Ä±mÄ±za": 4116,
      "Ġ1983": 4117,
      "viÃ§": 4118,
      "Ġdefa": 4119,
      "ĠBulgar": 4120,
      "IM": 4121,
      "ĠSim": 4122,
      "ĠgÃ¼nde": 4123,
      "aten": 4124,
      "Ä±f": 4125,
      "ĠEsk": 4126,
      "2021": 4127,
      "gal": 4128,
      "ĠparÃ§asÄ±": 4129,
      "Ġsahn": 4130,
      "Ġkonuda": 4131,
      "ĠpopÃ¼ler": 4132,
      "55": 4133,
      "ĠbaÅŁvur": 4134,
      "ĠÄ°spanyol": 4135,
      "Ġbirinci": 4136,
      "ĠJo": 4137,
      "Ã¼ph": 4138,
      "bakÄ±r": 4139,
      "Ġkariyerine": 4140,
      "ĠKir": 4141,
      "own": 4142,
      "Ġastr": 4143,
      "ational": 4144,
      "ood": 4145,
      "okal": 4146,
      "Ġyaparak": 4147,
      "osk": 4148,
      "ĠKonya": 4149,
      "Ġsite": 4150,
      "espor": 4151,
      "isiklet": 4152,
      "ĠyayÄ±nlandÄ±": 4153,
      "ĠYou": 4154,
      "ĠyÃ¶netic": 4155,
      "Ġturnuv": 4156,
      "ĠBelÃ§": 4157,
      "48": 4158,
      "ĠEnstit": 4159,
      "ĠhÃ¼kÃ»met": 4160,
      "UL": 4161,
      "Ġdram": 4162,
      "ĠBeyaz": 4163,
      "Ġservis": 4164,
      "Ġdile": 4165,
      "ĠÅŁehrin": 4166,
      "Ġmis": 4167,
      "Ġilgi": 4168,
      "isinden": 4169,
      "ĠKons": 4170,
      "ĠdiÅŁ": 4171,
      "mekte": 4172,
      "arbakÄ±r": 4173,
      "Ġaranan": 4174,
      "ĠÄ°ÅŁte": 4175,
      "ĠBalÄ±k": 4176,
      "abak": 4177,
      "ĠFakat": 4178,
      "ĠVar": 4179,
      "Ġ60": 4180,
      "ĠGeor": 4181,
      "geÃ§": 4182,
      "ĠYÄ±lmaz": 4183,
      "2020": 4184,
      "abiliyor": 4185,
      "teki": 4186,
      "iforn": 4187,
      "ĠyaÅŁÄ±ndaki": 4188,
      "Ġtedavi": 4189,
      "lediÄŁi": 4190,
      "alam": 4191,
      "ĠTah": 4192,
      "ĠMem": 4193,
      "Ġtec": 4194,
      "onav": 4195,
      "ĠMir": 4196,
      "Ġbl": 4197,
      "iliÄŁ": 4198,
      "Ġedebilir": 4199,
      "ĠÃ¼niversit": 4200,
      "daÅŁ": 4201,
      "ses": 4202,
      "ĠMeclis": 4203,
      "ĠGoogle": 4204,
      "ĠPlay": 4205,
      "Ġbahs": 4206,
      "78": 4207,
      "lÄ±ÅŁ": 4208,
      "larÄ±nÄ±z": 4209,
      "ĠBilim": 4210,
      "ĠMillet": 4211,
      "BA": 4212,
      "dum": 4213,
      "liÄŁe": 4214,
      "ĠDen": 4215,
      "esk": 4216,
      "ĠGar": 4217,
      "ĠHakk": 4218,
      "ĠDak": 4219,
      "Ġ09": 4220,
      "ecektir": 4221,
      "Ġtarihli": 4222,
      "Ġzengin": 4223,
      "ĠaÅŁam": 4224,
      "ĠMacar": 4225,
      "ĠtÃ¼rÃ¼dÃ¼r": 4226,
      "ĠSab": 4227,
      "ĠÅŁirketi": 4228,
      "ĠKanada": 4229,
      "Ġpersonel": 4230,
      "Ã§ev": 4231,
      "ÅŁam": 4232,
      "ita": 4233,
      "va": 4234,
      "ĠNur": 4235,
      "culuk": 4236,
      "ĠaÅŁaÄŁÄ±daki": 4237,
      "cisi": 4238,
      "Ġhizmeti": 4239,
      "Ġmen": 4240,
      "Ä±lmaktadÄ±r": 4241,
      "ĠÅŁiir": 4242,
      "ĠsÄ±nav": 4243,
      "ronik": 4244,
      "Ġeyaletinde": 4245,
      "ĠMy": 4246,
      "ĠCor": 4247,
      "seri": 4248,
      "ĠMic": 4249,
      "ĠPolonya": 4250,
      "isyonu": 4251,
      "ĠÃ§er": 4252,
      "ĠFatih": 4253,
      "antaj": 4254,
      "bu": 4255,
      "itler": 4256,
      "Ġalanda": 4257,
      "ukat": 4258,
      "ĠbaÅŁta": 4259,
      "Ġkendini": 4260,
      "Ġaile": 4261,
      "Ġtahmin": 4262,
      "Ġ35": 4263,
      "ĠSiz": 4264,
      "ida": 4265,
      "ĠÃ¶ncesi": 4266,
      "nu": 4267,
      "arya": 4268,
      "alog": 4269,
      "ĠbÃ¶lÃ¼mÃ¼": 4270,
      "ĠUkrayna": 4271,
      "Ġpiyasaya": 4272,
      "ĠÃ¶ne": 4273,
      "ĠÅŁiddet": 4274,
      "ĠYÄ±ldÄ±z": 4275,
      "Ġyerde": 4276,
      "ĠyazarÄ±": 4277,
      "Ġpil": 4278,
      "oto": 4279,
      "ĠsaÄŁlayan": 4280,
      "ĠdoÄŁrul": 4281,
      ".'": 4282,
      "Ġmemnun": 4283,
      "ĠcanlandÄ±r": 4284,
      "Ġkampan": 4285,
      "ĠEx": 4286,
      "Ġonay": 4287,
      "Ġkendisine": 4288,
      "ĠMag": 4289,
      "ĠDir": 4290,
      "ĠYardÄ±mcÄ±sÄ±": 4291,
      "ĠÄ°dar": 4292,
      "Ġmilletvekili": 4293,
      "ĠbeÄŁ": 4294,
      "ĠbalÄ±k": 4295,
      "Ġhesab": 4296,
      "Ġsporcular": 4297,
      "ĠkÃ¼r": 4298,
      "ĠaÃ§Ä±": 4299,
      "ĠartÄ±ÅŁ": 4300,
      "Ġkg": 4301,
      "ĠBritan": 4302,
      "TÃ¼rkiye": 4303,
      "Ġpark": 4304,
      "mail": 4305,
      "ĠilaÃ§": 4306,
      "mÃ¼r": 4307,
      "Ġparti": 4308,
      "ĠdÃ¼nyaya": 4309,
      "alama": 4310,
      "ena": 4311,
      "ĠBÃ¶lg": 4312,
      "Ġkans": 4313,
      "Ġnit": 4314,
      "ilebilir": 4315,
      "Ġruh": 4316,
      "ban": 4317,
      "lÄ±lÄ±k": 4318,
      "ĠgerÃ§": 4319,
      "Ġsunul": 4320,
      "Ġtutuk": 4321,
      "En": 4322,
      "out": 4323,
      "ĠÄ°nternet": 4324,
      "37": 4325,
      "lasik": 4326,
      "ĠUEFA": 4327,
      "ĠbuluÅŁ": 4328,
      "Ġakadem": 4329,
      "2019": 4330,
      "ĠtakÄ±myÄ±l": 4331,
      "elt": 4332,
      "Ġkaliteli": 4333,
      "ĠVen": 4334,
      "ula": 4335,
      "esidir": 4336,
      "Ġgider": 4337,
      "ĠayÄ±r": 4338,
      "39": 4339,
      "ĠHot": 4340,
      "ĠsayÄ±lÄ±": 4341,
      "ĠPas": 4342,
      "masÄ±ndan": 4343,
      "berg": 4344,
      "adi": 4345,
      "alÄ±dÄ±r": 4346,
      "49": 4347,
      "ĠiÃ§erik": 4348,
      "ĠbirleÅŁ": 4349,
      "liye": 4350,
      "Ġ1978": 4351,
      "ĠmÃ¼da": 4352,
      "Ġsig": 4353,
      "endik": 4354,
      "38": 4355,
      "Ġ''": 4356,
      "Ġdu": 4357,
      "ĠÃ§oÄŁun": 4358,
      "Ä±lÄ±Ã§": 4359,
      "Ġtas": 4360,
      "Ġ(),": 4361,
      "layÄ±n": 4362,
      "ĠTe": 4363,
      "OL": 4364,
      "ĠÃĸnc": 4365,
      "ĠErzurum": 4366,
      "ild": 4367,
      "Ġanlay": 4368,
      "46": 4369,
      "Ġmutlu": 4370,
      "ĠÅŁimdi": 4371,
      "ĠÃĸl": 4372,
      "Ġrisk": 4373,
      "ĠTicaret": 4374,
      "itter": 4375,
      "Ġkilomet": 4376,
      "Ġciddi": 4377,
      "ĠIrak": 4378,
      "Ġlim": 4379,
      "ĠÃĩan": 4380,
      "brahim": 4381,
      "ĠbÃ¶lge": 4382,
      "Ġic": 4383,
      "Ġproblem": 4384,
      "eksel": 4385,
      "2018": 4386,
      "ney": 4387,
      "Ġreklam": 4388,
      "tÃ¼dyo": 4389,
      "Ġmobil": 4390,
      "left": 4391,
      "Ġted": 4392,
      "ĠbabasÄ±": 4393,
      "dak": 4394,
      "nav": 4395,
      "ĠgurbetÃ§iler": 4396,
      "pe": 4397,
      "embe": 4398,
      "Ġeksik": 4399,
      "ĠBÃ¶lgesi": 4400,
      "Ġtarif": 4401,
      "ĠProfesyonel": 4402,
      "undaki": 4403,
      "ĠDol": 4404,
      "Ġyoktur": 4405,
      "Ġister": 4406,
      "TV": 4407,
      "ĠAnasayfa": 4408,
      "Ã¶lÃ§": 4409,
      "ates": 4410,
      "ĠMc": 4411,
      "Ġ1974": 4412,
      "ĠDiv": 4413,
      "Ġla": 4414,
      "ĠgÃ¶tÃ¼r": 4415,
      "ĠeÄŁlen": 4416,
      "ford": 4417,
      "ĠTes": 4418,
      "ĠMurat": 4419,
      "Ġum": 4420,
      "ilendir": 4421,
      "ĠseÃ§ildi": 4422,
      "Ġidari": 4423,
      "Ġelem": 4424,
      "bon": 4425,
      "ever": 4426,
      "ress": 4427,
      "sas": 4428,
      "ĠKonusu": 4429,
      "nÃ¼n": 4430,
      "sar": 4431,
      "ĠEyal": 4432,
      "ĠHÃ¼k": 4433,
      "bur": 4434,
      "Ġvaz": 4435,
      "estor": 4436,
      "ĠÅŁair": 4437,
      "ĠSivas": 4438,
      "Ñģ": 4439,
      "ĠDo": 4440,
      "ome": 4441,
      "ĠÃľlk": 4442,
      "Ä±nca": 4443,
      "rah": 4444,
      "arÄ±nda": 4445,
      "Ġzam": 4446,
      "ĠDiyarbakÄ±r": 4447,
      "ĠKomut": 4448,
      "ĠKab": 4449,
      "ube": 4450,
      "Ä±yordu": 4451,
      "ipar": 4452,
      "ĠSeri": 4453,
      "lanma": 4454,
      "ĠdÄ±ÅŁÄ±": 4455,
      "ĠSitesi": 4456,
      "57": 4457,
      "ĠMut": 4458,
      "roid": 4459,
      "Ġettik": 4460,
      "ĠinsanlarÄ±n": 4461,
      "Ã¨": 4462,
      "31": 4463,
      "ean": 4464,
      "ĠÃľst": 4465,
      "Ġtipi": 4466,
      "Ġkey": 4467,
      "Ġ1981": 4468,
      "ĠyapÄ±lÄ±r": 4469,
      "Ġkullanarak": 4470,
      "ĠNorveÃ§": 4471,
      "Ġkayded": 4472,
      "ĠKÃ¶yÃ¼n": 4473,
      "Ġenerji": 4474,
      "ĠyetiÅŁ": 4475,
      "ĠGre": 4476,
      "inae": 4477,
      "ett": 4478,
      "ĠBurada": 4479,
      "deb": 4480,
      "ĠÃ¶nÃ¼nde": 4481,
      "Ġileri": 4482,
      "Ä±ÅŁtÄ±": 4483,
      "ipl": 4484,
      "ĠWorld": 4485,
      "indistan": 4486,
      "TC": 4487,
      "ekret": 4488,
      "aÅŁÄ±": 4489,
      "ĠiÃ§eri": 4490,
      "ins": 4491,
      "Ġgitar": 4492,
      "yu": 4493,
      "Ġdam": 4494,
      "Ã¶rÃ¼": 4495,
      "Ġbana": 4496,
      "SS": 4497,
      "ĠÄ±s": 4498,
      "ĠkiÅŁilik": 4499,
      "iyel": 4500,
      "ĠmÃ¼dÃ¼r": 4501,
      "lex": 4502,
      "Ġmar": 4503,
      "ĠDar": 4504,
      "Ġedece": 4505,
      "ĠtÃ¶ren": 4506,
      "ID": 4507,
      "Ġban": 4508,
      "Ä±nÄ±za": 4509,
      "ĠAbd": 4510,
      "ĠsÃ¼t": 4511,
      "ence": 4512,
      "Ġilinde": 4513,
      "Ġmaddeleri": 4514,
      "AF": 4515,
      "Ġ1979": 4516,
      "56": 4517,
      "kiler": 4518,
      "hy": 4519,
      "ediÄŁi": 4520,
      "lamasÄ±": 4521,
      "Ġaktif": 4522,
      "ĠFir": 4523,
      "ndaki": 4524,
      "Ġsefer": 4525,
      "ĠSol": 4526,
      "ĠÄ°sviÃ§": 4527,
      "ĠkÄ±zÄ±": 4528,
      "ĠÅŁun": 4529,
      "Ġtavs": 4530,
      "ender": 4531,
      "eter": 4532,
      "ĠeÄŁitimi": 4533,
      "34": 4534,
      "ont": 4535,
      "Ġ1975": 4536,
      "ĠsÄ±kÄ±ntÄ±": 4537,
      "Ġsiyah": 4538,
      "Ġbiy": 4539,
      "ĠCity": 4540,
      "ĠHayatÄ±": 4541,
      "ĠgÃ¶k": 4542,
      "ĠÄ±ÅŁÄ±k": 4543,
      "Ġversiyon": 4544,
      "atan": 4545,
      "ĠDÃ¼ny": 4546,
      "ĠkarÅŁÄ±sÄ±nda": 4547,
      "Ġnerede": 4548,
      "ĠâĢĶ": 4549,
      "tren": 4550,
      "Ġaltyap": 4551,
      "ĠprogramÄ±": 4552,
      "ĠMeclisi": 4553,
      "Ġmekan": 4554,
      "ĠAvustralya": 4555,
      "iber": 4556,
      "ĠbaÅŁlar": 4557,
      "ĠDa": 4558,
      "ĠtakÄ±myÄ±ldÄ±zÄ±": 4559,
      "rada": 4560,
      "Ġidi": 4561,
      "Ġkorun": 4562,
      "ĠyalnÄ±zca": 4563,
      "Ġsorum": 4564,
      "58": 4565,
      "larca": 4566,
      "Ġ1976": 4567,
      "Ġtesis": 4568,
      "ĠRos": 4569,
      "Ġoyuncusu": 4570,
      "Ġdost": 4571,
      "dÄ±rÄ±m": 4572,
      "cÄ±lar": 4573,
      "onavirÃ¼s": 4574,
      "zer": 4575,
      "ĠBaÅŁbakan": 4576,
      "32": 4577,
      "Ġ1972": 4578,
      "ĠÃ§Ã¼nkÃ¼": 4579,
      "Ġkapas": 4580,
      "Ġeylem": 4581,
      "ĠErmen": 4582,
      "los": 4583,
      "rum": 4584,
      "ĠOkul": 4585,
      "mut": 4586,
      "Ġmodern": 4587,
      "Ġtehlik": 4588,
      "Ä±labilir": 4589,
      "Ġyere": 4590,
      "lÄ±klÄ±": 4591,
      "ĠHÄ±r": 4592,
      "ĠbaÅŁlamÄ±ÅŁtÄ±r": 4593,
      "IL": 4594,
      "ĠgeÃ§mektedir": 4595,
      "lÄ±klarÄ±": 4596,
      "ĠkayÄ±tlarÄ±nda": 4597,
      "Ġbilinir": 4598,
      "Ġrom": 4599,
      "ĠJos": 4600,
      "ĠNGC": 4601,
      "ĠMuham": 4602,
      "mit": 4603,
      "ĠÃ¼rÃ¼nleri": 4604,
      "cilik": 4605,
      "Ġsingle": 4606,
      "ĠÅŁar": 4607,
      "Ġend": 4608,
      "Ġ500": 4609,
      "ĠHasan": 4610,
      "ĠhÃ¢": 4611,
      "ĠmaÃ§Ä±": 4612,
      "Ġkitab": 4613,
      "RT": 4614,
      "essa": 4615,
      "ĠeÅŁi": 4616,
      "ĠKarÅŁ": 4617,
      "ĠÅŁarkÄ±lar": 4618,
      "ĠZaman": 4619,
      "ĠmaÃ§ta": 4620,
      "ĠhenÃ¼z": 4621,
      "Ġdavet": 4622,
      "ĠdÃ¶k": 4623,
      "terek": 4624,
      "Ġoynam": 4625,
      "ĠsÃ¶ylem": 4626,
      "bek": 4627,
      "Er": 4628,
      "Ġ1973": 4629,
      "Ġ1971": 4630,
      "ĠdÃ¼ÄŁ": 4631,
      "59": 4632,
      "ester": 4633,
      "ĠolmasÄ±na": 4634,
      "ĠPal": 4635,
      "Ġbuz": 4636,
      "Ġ1977": 4637,
      "Ġ186": 4638,
      "Ġbon": 4639,
      "ĠiÃ§i": 4640,
      "ĠfÄ±rsat": 4641,
      "Ġgiren": 4642,
      "langÄ±Ã§": 4643,
      "ĠVideo": 4644,
      "Ġgaz": 4645,
      "ĠNet": 4646,
      "ington": 4647,
      "Ä±mÄ±zÄ±n": 4648,
      "Ġyerini": 4649,
      "Ġkomedi": 4650,
      "ĠAnt": 4651,
      "ĠAlb": 4652,
      "lÄ±klar": 4653,
      "ĠHem": 4654,
      "ĠKent": 4655,
      "ĠTiyatro": 4656,
      "ĠyerleÅŁtir": 4657,
      "Ã¼stÃ¼": 4658,
      "Ġmimar": 4659,
      "Ġhafif": 4660,
      "47": 4661,
      "ĠKurul": 4662,
      "eth": 4663,
      "my": 4664,
      "abrik": 4665,
      "ĠRum": 4666,
      "ayÄ±sÄ±yla": 4667,
      "ĠElekt": 4668,
      "Ġfin": 4669,
      "ĠalmÄ±ÅŁ": 4670,
      "ebilecek": 4671,
      "Ġsene": 4672,
      "ĠForex": 4673,
      "Ġton": 4674,
      "ĠCami": 4675,
      "Ġkop": 4676,
      "amet": 4677,
      "ĠTim": 4678,
      "ĠÃ¼retic": 4679,
      "Ã¼ya": 4680,
      "lub": 4681,
      "Ã¢h": 4682,
      "dikten": 4683,
      "luluÄŁu": 4684,
      "Ġpsik": 4685,
      "Ġ1968": 4686,
      "antep": 4687,
      "ĠGazetesi": 4688,
      "ann": 4689,
      "ano": 4690,
      "tiler": 4691,
      "ĠSup": 4692,
      "ĠÃ¼ye": 4693,
      "ĠaÃ§Ä±klama": 4694,
      "demir": 4695,
      "ĠuÃ§uÅŁ": 4696,
      "gusal": 4697,
      "ael": 4698,
      "diler": 4699,
      "ĠAvusturya": 4700,
      "ĠdanÄ±ÅŁ": 4701,
      "Ġderin": 4702,
      "ĠHrist": 4703,
      "Ã¼lÃ¼": 4704,
      "ii": 4705,
      "age": 4706,
      "ĠyanlÄ±ÅŁ": 4707,
      "ath": 4708,
      "Ä±nday": 4709,
      "ĠÃ§atÄ±ÅŁ": 4710,
      "ĠCen": 4711,
      "Ġstat": 4712,
      "ĠLisesi": 4713,
      "Ġef": 4714,
      "ebook": 4715,
      "ald": 4716,
      "Ġedilmesi": 4717,
      "off": 4718,
      "ĠÅŁÃ¼ph": 4719,
      "ĠbaÅŁkenti": 4720,
      "Ġescort": 4721,
      "ĠdÃ¶ndÃ¼": 4722,
      "ĠyetiÅŁtir": 4723,
      "Ġerken": 4724,
      "ĠKÃ¼t": 4725,
      "ĠMersin": 4726,
      "likler": 4727,
      "Ä±mÄ±zÄ±": 4728,
      "larÄ±ndaki": 4729,
      "Ã¶rd": 4730,
      "icari": 4731,
      "Ġmetal": 4732,
      "UM": 4733,
      "ĠkomÃ¼n": 4734,
      "ĠsayÄ±mÄ±na": 4735,
      "ikayet": 4736,
      "ĠgerektiÄŁini": 4737,
      "ĠkatÄ±lÄ±m": 4738,
      "Ġuygulama": 4739,
      "sur": 4740,
      "abilmek": 4741,
      "ĠPaul": 4742,
      "ÑĤ": 4743,
      "Ġord": 4744,
      "ima": 4745,
      "Ġmit": 4746,
      "ematik": 4747,
      "ife": 4748,
      "emez": 4749,
      "Ġgalaksidir": 4750,
      "Ġgitti": 4751,
      "fÄ±": 4752,
      "Ġkasab": 4753,
      "Ä±sÄ±t": 4754,
      "Ġsivil": 4755,
      "Ġyandan": 4756,
      "akistan": 4757,
      "ĠKiÅŁ": 4758,
      "ĠyayÄ±mlanan": 4759,
      "atya": 4760,
      "ĠHindistan": 4761,
      "ST": 4762,
      "lament": 4763,
      "ĠMÃ¼slÃ¼man": 4764,
      "Ġeg": 4765,
      "Ġkons": 4766,
      "ĠbÃ¼ny": 4767,
      "ayarak": 4768,
      "Ġgar": 4769,
      "ĠolmadÄ±ÄŁÄ±nÄ±": 4770,
      "ku": 4771,
      "ĠBankasÄ±": 4772,
      "oj": 4773,
      "ĠaraÅŁtÄ±rma": 4774,
      "ĠDavid": 4775,
      "ĠyÃ¶nettiÄŁi": 4776,
      "ĠLiga": 4777,
      "ĠKut": 4778,
      "ĠNehri": 4779,
      "Ġatan": 4780,
      "Ġhed": 4781,
      "Ġins": 4782,
      "ĠiÃ§ine": 4783,
      "Ġkredi": 4784,
      "ĠQu": 4785,
      "Ġpas": 4786,
      "ezer": 4787,
      "jantin": 4788,
      "ĠMey": 4789,
      "Ġdemek": 4790,
      "Ġstandart": 4791,
      "mur": 4792,
      "ĠMev": 4793,
      "Ð¾Ð": 4794,
      "ĠBilgi": 4795,
      "Ġproje": 4796,
      "Ġdemir": 4797,
      "Ġfon": 4798,
      "mamÄ±ÅŁ": 4799,
      "resi": 4800,
      "ĠBayram": 4801,
      "ory": 4802,
      "Ġazal": 4803,
      "ĠkÄ±rmÄ±zÄ±": 4804,
      "ĠÃ§erÃ§ev": 4805,
      "Ġsorumlu": 4806,
      "ĠEnstitÃ¼sÃ¼": 4807,
      "ĠÅŁehirdir": 4808,
      "ĠÅŀu": 4809,
      "liÄŁine": 4810,
      "Ġcumhur": 4811,
      "ĠtaÅŁÄ±yan": 4812,
      "ĠolmadÄ±ÄŁÄ±": 4813,
      "Ġmerak": 4814,
      "ĠkazandÄ±r": 4815,
      "eceÄŁiz": 4816,
      "elsef": 4817,
      "etleri": 4818,
      "Ġkonser": 4819,
      "ĠÃ¶zgÃ¼r": 4820,
      "ĠKocaeli": 4821,
      "ĠKart": 4822,
      "ĠÄ°brahim": 4823,
      "ĠÅŁirketleri": 4824,
      "ĠkitabÄ±": 4825,
      "ĠkÃ¶ken": 4826,
      "Ä±lÄ±yor": 4827,
      "ove": 4828,
      "tadan": 4829,
      "ĠdÃ¼zenlem": 4830,
      "Ġsebeb": 4831,
      "ĠFederasyonu": 4832,
      "ĠKulÃ¼b": 4833,
      "ĠÃľniversitesinde": 4834,
      "ĠPlan": 4835,
      "ech": 4836,
      "ĠgÃ¶ren": 4837,
      "Ġus": 4838,
      "ĠbaÅŁlay": 4839,
      "ĠEy": 4840,
      "ĠhoÅŁ": 4841,
      "ĠFac": 4842,
      "Ġyeterli": 4843,
      "Ġsim": 4844,
      "KK": 4845,
      "ĠKÃ¼rt": 4846,
      "ĠkatÄ±lan": 4847,
      "Ġ1950": 4848,
      "abilm": 4849,
      "birliÄŁi": 4850,
      "ĠdoÄŁum": 4851,
      "ĠinÃ§": 4852,
      "90": 4853,
      "ĠkÃ¼t": 4854,
      "ĠkÃ¶ÅŁ": 4855,
      "ĠKuvvetleri": 4856,
      "ĠAj": 4857,
      "ĠHD": 4858,
      "ĠdeÄŁerli": 4859,
      "Ġastronom": 4860,
      "we": 4861,
      "ĠSaat": 4862,
      "ĠYas": 4863,
      "Ġseyahat": 4864,
      "Ä±lacak": 4865,
      "Ġciv": 4866,
      "ĠJan": 4867,
      "Ġettir": 4868,
      "ĠDin": 4869,
      "ĠÄ°Ã§in": 4870,
      "navut": 4871,
      "ĠkalÄ±": 4872,
      "ekim": 4873,
      "Ġnedir": 4874,
      "EV": 4875,
      "ĠNasÄ±l": 4876,
      "ĠkurulmuÅŁtur": 4877,
      "ĠÃľrÃ¼n": 4878,
      "Ġprof": 4879,
      "tuÄŁu": 4880,
      "ĠEvr": 4881,
      "ĠaracÄ±lÄ±ÄŁÄ±": 4882,
      "car": 4883,
      "fen": 4884,
      "ĠkarÅŁÄ±lÄ±k": 4885,
      "Ġokuy": 4886,
      "ĠMilletvekili": 4887,
      "Ġ1969": 4888,
      "Ġteklif": 4889,
      "Ġvermek": 4890,
      "araj": 4891,
      "mesiyle": 4892,
      "Ä±ndÄ±r": 4893,
      "ĠBoz": 4894,
      "Ġbirim": 4895,
      "ĠyanÄ±t": 4896,
      "ĠaÄŁaÃ§": 4897,
      "Ġarada": 4898,
      "Ã¼ley": 4899,
      "ÄŁunu": 4900,
      "ĠHayat": 4901,
      "irler": 4902,
      "Ġmillet": 4903,
      "miÅŁti": 4904,
      "ĠyazdÄ±ÄŁÄ±": 4905,
      "EC": 4906,
      "ĠyapÄ±yor": 4907,
      "ĠattÄ±": 4908,
      "ĠGÃ¼neÅŁ": 4909,
      "cusu": 4910,
      "lanÄ±yor": 4911,
      "Ġnot": 4912,
      "54": 4913,
      "Ġkup": 4914,
      "ĠsÃ¼rede": 4915,
      "po": 4916,
      "Ġbelirli": 4917,
      "orth": 4918,
      "Ġnokta": 4919,
      "ĠTÄ±p": 4920,
      "eyle": 4921,
      "dit": 4922,
      "ĠSat": 4923,
      "ĠYazar": 4924,
      "dÄ±klarÄ±": 4925,
      "ĠOrdu": 4926,
      "iforniya": 4927,
      "Ġkavram": 4928,
      "alimanÄ±": 4929,
      "ĠRobert": 4930,
      "ĠyapÄ±lmasÄ±": 4931,
      "ĠalÄ±ÅŁveriÅŁ": 4932,
      "Ġstrate": 4933,
      "bin": 4934,
      "ĠoranÄ±": 4935,
      "ĠtÃ¼rÃ¼": 4936,
      "Ġ?": 4937,
      "ĠÃ¶lÃ§Ã¼": 4938,
      "ĠMobil": 4939,
      "Ġoku": 4940,
      "lip": 4941,
      "Ġmadde": 4942,
      "Ġkral": 4943,
      "ĠÃ¶zellikleri": 4944,
      "miyor": 4945,
      "ĠarttÄ±r": 4946,
      "ĠkÄ±smÄ±": 4947,
      "ĠDÄ±ÅŁiÅŁleri": 4948,
      "Ġkuruldu": 4949,
      "ĠÅŀehrin": 4950,
      "ux": 4951,
      "ĠyaÅŁadÄ±": 4952,
      "AH": 4953,
      "Ã§isi": 4954,
      "ĠTal": 4955,
      "coin": 4956,
      "ĠmadalyalÄ±": 4957,
      "ĠinsanlarÄ±": 4958,
      "elli": 4959,
      "ĠaslÄ±nda": 4960,
      "Ġpaket": 4961,
      "ĠÃĩift": 4962,
      "ledik": 4963,
      "Ġenf": 4964,
      "ĠresmÃ®": 4965,
      "ĠgÃ¼nÃ¼mÃ¼z": 4966,
      "Ġisten": 4967,
      "Åį": 4968,
      "ĠBan": 4969,
      "ited": 4970,
      "Ġhala": 4971,
      "ÄŁur": 4972,
      "Ġbirimleri": 4973,
      "dikleri": 4974,
      "akkale": 4975,
      "laka": 4976,
      "ĠGÃ¶n": 4977,
      "rÃ¼b": 4978,
      "ĠgerÃ§ekleÅŁtirilen": 4979,
      "ĠbÃ¶lgede": 4980,
      "iter": 4981,
      "Ä±mda": 4982,
      "Ġbuna": 4983,
      "ternatif": 4984,
      "malÄ±dÄ±r": 4985,
      "Ä±ydÄ±": 4986,
      "ym": 4987,
      "Ġokun": 4988,
      "anlÄ±ur": 4989,
      "Ġedebiyat": 4990,
      "mayÄ±n": 4991,
      "ball": 4992,
      "ĠAir": 4993,
      "ĠyavaÅŁ": 4994,
      "imark": 4995,
      "ĠKaliforniya": 4996,
      "ĠtaÅŁÄ±maktadÄ±r": 4997,
      "ĠbaskÄ±": 4998,
      "Ġorman": 4999,
      "Ã§Ä±sÄ±": 5000,
      "ĠBerlin": 5001,
      "obÃ¼s": 5002,
      "ĠAdam": 5003,
      "Ġgetirdi": 5004,
      "rosoft": 5005,
      "paÅŁa": 5006,
      "Ġval": 5007,
      "Ġkentinde": 5008,
      "elidir": 5009,
      "umsuz": 5010,
      "ĠLos": 5011,
      "ĠÃ¶ÄŁ": 5012,
      "ĠGaziantep": 5013,
      "ski": 5014,
      "Ġir": 5015,
      "areb": 5016,
      "Ġkurtul": 5017,
      "ĠStar": 5018,
      "ura": 5019,
      "ĠSoy": 5020,
      "ĠWar": 5021,
      "ĠeÅŁit": 5022,
      "ĠgÃ¶revi": 5023,
      "uf": 5024,
      "ĠEskiÅŁehir": 5025,
      "ĠHÃ¼seyin": 5026,
      "Ġvarsa": 5027,
      "gili": 5028,
      "afer": 5029,
      "ĠHastanesi": 5030,
      "Ġbelirterek": 5031,
      "ĠdoÄŁrudan": 5032,
      "tÄ±lÄ±": 5033,
      "Ġkod": 5034,
      "mamÄ±z": 5035,
      "ĠEtik": 5036,
      "Ġsizlere": 5037,
      "ĠCal": 5038,
      "bat": 5039,
      "Ġmon": 5040,
      "ĠMÃĸ": 5041,
      "ĠKarab": 5042,
      "rid": 5043,
      "ĠBet": 5044,
      "ĠArab": 5045,
      "ĠSit": 5046,
      "kÄ±r": 5047,
      "liyet": 5048,
      "ĠpiÅŁ": 5049,
      "2017": 5050,
      "ĠDel": 5051,
      "ĠSm": 5052,
      "IK": 5053,
      "larÄ±mÄ±zÄ±n": 5054,
      "Ġduvar": 5055,
      "OK": 5056,
      "kol": 5057,
      "Ġkont": 5058,
      "Ġizley": 5059,
      "ass": 5060,
      "iyatrosu": 5061,
      "ĠBek": 5062,
      "Ġbasit": 5063,
      "ĠDakika": 5064,
      "Ġalacak": 5065,
      "Ġolmaz": 5066,
      "ĠUr": 5067,
      "ĠYay": 5068,
      "ĠaylÄ±k": 5069,
      "ĠhayatÄ±": 5070,
      "ĠÃ¼zerindeki": 5071,
      "ĠkÃ¶k": 5072,
      "say": 5073,
      "zet": 5074,
      "ĠmÃ¼hendis": 5075,
      "tis": 5076,
      "Ġimza": 5077,
      "Ġhatta": 5078,
      "ĠAL": 5079,
      "Ġyetkil": 5080,
      "Ġaktiv": 5081,
      "yse": 5082,
      "ĠMosk": 5083,
      "Ġiptal": 5084,
      "ĠKilis": 5085,
      "Ġediyorum": 5086,
      "ĠKer": 5087,
      "ĠÅŁarkÄ±sÄ±": 5088,
      "ĠkÄ±ÅŁ": 5089,
      "eceÄŁine": 5090,
      "Ġkilo": 5091,
      "ubu": 5092,
      "ĠgÃ¼c": 5093,
      "ĠSezon": 5094,
      "ĠPop": 5095,
      "Ġara": 5096,
      "Ġhayata": 5097,
      "Ġhayal": 5098,
      "ĠUygul": 5099,
      "53": 5100,
      "eliÄŁi": 5101,
      "meniz": 5102,
      "imizde": 5103,
      "lÄ±ÄŁa": 5104,
      "ĠÃ§ab": 5105,
      "adÄ±m": 5106,
      "ĠÅŁirketler": 5107,
      "Ġtatil": 5108,
      "ĠyÄ±lÄ±n": 5109,
      "Ġatlet": 5110,
      "ĠÃ¼lkeler": 5111,
      "Ġdurumunda": 5112,
      "Ġmaliyet": 5113,
      "ĠyÄ±lda": 5114,
      "Ġhaft": 5115,
      "ĠÃ¶deme": 5116,
      "nan": 5117,
      "ĠBelÃ§ika": 5118,
      "che": 5119,
      "asino": 5120,
      "esiz": 5121,
      "que": 5122,
      "ĠKarad": 5123,
      "Ġcis": 5124,
      "ords": 5125,
      "bil": 5126,
      "ĠBol": 5127,
      "ĠLin": 5128,
      "ĠArnavut": 5129,
      "Ġ47": 5130,
      "ĠÃ¼retilen": 5131,
      "Ã¼cu": 5132,
      "Ã¶rdÃ¼ncÃ¼": 5133,
      "ĠCuma": 5134,
      "ĠkurulmuÅŁ": 5135,
      "Ġceza": 5136,
      "ĠÃĩarÅŁ": 5137,
      "ĠÃ¶zelliÄŁi": 5138,
      "ĠinÅŁaat": 5139,
      "ĠBuna": 5140,
      "ĠDep": 5141,
      "ĠaracÄ±": 5142,
      "ĠdÃ¶v": 5143,
      "ĠOf": 5144,
      "ĠâĢ¢": 5145,
      "ĠsaÄŁlÄ±klÄ±": 5146,
      "ĠGenÃ§lik": 5147,
      "Ġby": 5148,
      "ĠOrt": 5149,
      "isiyle": 5150,
      "ĠilÃ§esi": 5151,
      "Ġsenar": 5152,
      "Ġsert": 5153,
      "Ġbayan": 5154,
      "Ã§u": 5155,
      "tÃ¼rk": 5156,
      "ĠayÄ±": 5157,
      "ago": 5158,
      "lÃ¢": 5159,
      "vin": 5160,
      "deri": 5161,
      "Ġsap": 5162,
      "ĠakÄ±llÄ±": 5163,
      "Ġyasak": 5164,
      "ĠkardeÅŁi": 5165,
      "ĠSonr": 5166,
      "ÄŁÄ±ndan": 5167,
      "99": 5168,
      "ix": 5169,
      "Ġ90": 5170,
      "Ã¶ÄŁr": 5171,
      "Ġekib": 5172,
      "Ġbitki": 5173,
      "ĠSaint": 5174,
      "Ġsokak": 5175,
      "ala": 5176,
      "ĠÃ§eken": 5177,
      "ĠyÃ¶netimi": 5178,
      "ĠseÃ§imleri": 5179,
      "Ðº": 5180,
      "ike": 5181,
      "Ġdepr": 5182,
      "ipariÅŁ": 5183,
      "Ġayar": 5184,
      "ĠakÅŁam": 5185,
      "Ġ1967": 5186,
      "bah": 5187,
      "gat": 5188,
      "ĠGÃ¼venlik": 5189,
      "ĠKomisyonu": 5190,
      "Ġkaybetti": 5191,
      "org": 5192,
      "Ġfinans": 5193,
      "ĠAdalet": 5194,
      "ĠFiyat": 5195,
      "ĠSelÃ§": 5196,
      "ĠtarÄ±m": 5197,
      "ĠFar": 5198,
      "Ä±sÄ±z": 5199,
      "Ġyapar": 5200,
      "ĠYÄ±ldÄ±rÄ±m": 5201,
      "ys": 5202,
      "SBN": 5203,
      "Ġpozisyonunda": 5204,
      "Ġ)": 5205,
      "ĠOÄŁ": 5206,
      "debiyat": 5207,
      "esin": 5208,
      "ĠLat": 5209,
      "ĠoluÅŁur": 5210,
      "sÃ¼z": 5211,
      "Ã¼nÃ¼z": 5212,
      "OM": 5213,
      "2010": 5214,
      "ĠkarÄ±ÅŁ": 5215,
      "Ġkendisini": 5216,
      "ĠSanayi": 5217,
      "SK": 5218,
      "Ġarama": 5219,
      "Ġsav": 5220,
      "Ġgay": 5221,
      "ĠmÃ¼ÅŁteri": 5222,
      "ĠdÃ¼ÅŁÃ¼nc": 5223,
      "Ġolma": 5224,
      "Ġsohbet": 5225,
      "ĠYaÅŁamÄ±": 5226,
      "ĠFÄ±r": 5227,
      "ĠgÃ¼nÃ¼mÃ¼zde": 5228,
      "Ġteor": 5229,
      "ĠTom": 5230,
      "Ġresim": 5231,
      "ĠKen": 5232,
      "ĠArjantin": 5233,
      "ĠkiÅŁisel": 5234,
      "Ġavantaj": 5235,
      "ĠYal": 5236,
      "ĠBos": 5237,
      "ĠdÃ¶nÃ¼ÅŁtÃ¼r": 5238,
      "ĠyeÅŁil": 5239,
      "Ġbilgileri": 5240,
      "ĠCount": 5241,
      "ĠÅŁehrinde": 5242,
      "ĠDanimark": 5243,
      "Ġnef": 5244,
      "ĠoluÅŁturul": 5245,
      "51": 5246,
      "ĠOkulu": 5247,
      "Ġetmeye": 5248,
      "ĠgruplarÄ±": 5249,
      "Ġsunu": 5250,
      "OV": 5251,
      "ĠÄ°d": 5252,
      "ĠrahatsÄ±z": 5253,
      "Ġokum": 5254,
      "2012": 5255,
      "ĠsÃ¼ren": 5256,
      "ese": 5257,
      "nam": 5258,
      "aÅŁÄ±r": 5259,
      "ĠGÃ¼mÃ¼ÅŁ": 5260,
      "Ġ80": 5261,
      "ole": 5262,
      "ĠYeÅŁil": 5263,
      "ĠgÃ¼neÅŁ": 5264,
      "Ġ36": 5265,
      "ĠKayseri": 5266,
      "inizin": 5267,
      "ĠKarak": 5268,
      "uzur": 5269,
      "ave": 5270,
      "ĠWh": 5271,
      "cÄ±lÄ±ÄŁÄ±": 5272,
      "azÄ±m": 5273,
      "Ġred": 5274,
      "abilen": 5275,
      "ĠCev": 5276,
      "Ġdoldur": 5277,
      "ĠtaÅŁÄ±": 5278,
      "Ġvoleybol": 5279,
      "ĠBrezilya": 5280,
      "Ġyapmaya": 5281,
      "Ġbazen": 5282,
      "amba": 5283,
      "ĠgÃ¶rmek": 5284,
      "Ġdolu": 5285,
      "Ġekipleri": 5286,
      "ĠsoruÅŁtur": 5287,
      "ifaessa": 5288,
      "ĠEvrifaessa": 5289,
      "esir": 5290,
      "ĠOb": 5291,
      "Ġkalp": 5292,
      "Ġ1964": 5293,
      "esli": 5294,
      "olojisi": 5295,
      "ĠKahraman": 5296,
      "Ġfirmalar": 5297,
      "liy": 5298,
      "ĠgÃ¶sterdi": 5299,
      "amam": 5300,
      "dÃ¼ÄŁÃ¼": 5301,
      "pi": 5302,
      "Ã¢y": 5303,
      "ĠAraÅŁtÄ±rma": 5304,
      "Ġvurgul": 5305,
      "ĠhayÄ±r": 5306,
      "Ġkurulu": 5307,
      "led": 5308,
      "Äĩ": 5309,
      "ĠmaÃ§Ä±nda": 5310,
      "ott": 5311,
      "center": 5312,
      "Ġedilmektedir": 5313,
      "2008": 5314,
      "ĠSovyetler": 5315,
      "fat": 5316,
      "ĠArk": 5317,
      "Ġediyoruz": 5318,
      "ĠGrand": 5319,
      "ĠAkademisi": 5320,
      "Ġ1965": 5321,
      "Ġrekor": 5322,
      "ĠMicrosoft": 5323,
      "ĠstÃ¼dyo": 5324,
      "isy": 5325,
      "Ġsabah": 5326,
      "Ġsonu": 5327,
      "eph": 5328,
      "ĠmaÄŁaz": 5329,
      "LE": 5330,
      "anlÄ±k": 5331,
      "Ġ70": 5332,
      "amb": 5333,
      "ĠDis": 5334,
      "ĠÅŀanlÄ±ur": 5335,
      "Ġincelem": 5336,
      "ĠAndroid": 5337,
      "Ġ1966": 5338,
      "giliz": 5339,
      "cÄ±lÄ±": 5340,
      "Ġgiden": 5341,
      "ĠgÃ¼nlerde": 5342,
      "ĠdÃ¼ÅŁÃ¼r": 5343,
      "2016": 5344,
      "Ġdijital": 5345,
      "ĠÃ§iÃ§ek": 5346,
      "ward": 5347,
      "ĠBirinci": 5348,
      "Ġucu": 5349,
      "Ġx": 5350,
      "Ġgelebilir": 5351,
      "Ġyans": 5352,
      "ĠMichael": 5353,
      "eciler": 5354,
      "Ġ08": 5355,
      "**": 5356,
      "Ġyapacak": 5357,
      "Ġkendisi": 5358,
      "ĠÅŁans": 5359,
      "abileceÄŁi": 5360,
      "ete": 5361,
      "Ã¼cut": 5362,
      "iyordu": 5363,
      "ĠKÄ±lÄ±Ã§": 5364,
      "ĠÃ¶ÄŁrenci": 5365,
      "racat": 5366,
      "Ã¼leyman": 5367,
      "Ġyerinde": 5368,
      "iti": 5369,
      "ĠKuÅŁ": 5370,
      "ĠMu": 5371,
      "ĠHa": 5372,
      "okulu": 5373,
      "Ġhac": 5374,
      "ĠNev": 5375,
      "eksika": 5376,
      "asya": 5377,
      "ĠJames": 5378,
      "cistan": 5379,
      "ati": 5380,
      "aÄŁÄ±n": 5381,
      "ĠVE": 5382,
      "cil": 5383,
      "liÄŁin": 5384,
      "ĠMuhammed": 5385,
      "Ġaf": 5386,
      "ĠSte": 5387,
      "ĠTiyatrosu": 5388,
      "olik": 5389,
      "ĠdÃ¼zenlen": 5390,
      "ÂŃ": 5391,
      "ĠyapmaktadÄ±r": 5392,
      "ĠBaÅŁarÄ±": 5393,
      "St": 5394,
      "ĠeriÅŁ": 5395,
      "ĠÃĩanakkale": 5396,
      "Ġiline": 5397,
      "ĠÃĩay": 5398,
      "2015": 5399,
      "ĠulaÅŁÄ±m": 5400,
      "43": 5401,
      "leyerek": 5402,
      "2007": 5403,
      "edeni": 5404,
      "ĠtamamladÄ±": 5405,
      "Ġkaydetti": 5406,
      "ĠBro": 5407,
      "gre": 5408,
      "ĠyapÄ±lmÄ±ÅŁtÄ±r": 5409,
      "tarÄ±": 5410,
      "Ġ1961": 5411,
      "ĠBÃ¶lge": 5412,
      "ĠAnn": 5413,
      "ĠFu": 5414,
      "erleri": 5415,
      "adir": 5416,
      "ĠGÃ¼nÃ¼": 5417,
      "Ġ45": 5418,
      "ĠSun": 5419,
      "ĠtecrÃ¼b": 5420,
      "ĠMoskova": 5421,
      "ĠgeÃ§iÅŁ": 5422,
      "Ġhaberleri": 5423,
      "ling": 5424,
      "nak": 5425,
      "ĠTasar": 5426,
      "Ġneler": 5427,
      "Ġkomp": 5428,
      "ÅŁiv": 5429,
      "abilmektedir": 5430,
      "ĠBÃ¶lÃ¼mÃ¼": 5431,
      "ĠdeÄŁiÅŁim": 5432,
      "ĠDÃ¼ÅŁ": 5433,
      "ektey": 5434,
      "Ġbebek": 5435,
      "2009": 5436,
      "ĠgÃ¶zlem": 5437,
      "ĠPap": 5438,
      "ĠsonuÃ§larÄ±": 5439,
      "ĠCounty": 5440,
      "cÄ±k": 5441,
      "prÃ¼": 5442,
      "engi": 5443,
      "ĠÃ¼rÃ¼nler": 5444,
      "Ġavukat": 5445,
      "ĠyÄ±ldÄ±r": 5446,
      "ĠBasketbol": 5447,
      "Ġmac": 5448,
      "ĠKardeÅŁ": 5449,
      "Ġortalama": 5450,
      "ky": 5451,
      "ste": 5452,
      "ĠyaÅŁadÄ±ÄŁÄ±": 5453,
      "ĠayrÄ±l": 5454,
      "iplom": 5455,
      "ĠÃ¶nÃ¼ne": 5456,
      "ĠÄ°sviÃ§re": 5457,
      "lanmaktadÄ±r": 5458,
      "2022": 5459,
      "Ġkalk": 5460,
      "ĠbÃ¶lgesine": 5461,
      "ĠWe": 5462,
      "ĠyapÄ±lmÄ±ÅŁ": 5463,
      "Ġanaliz": 5464,
      "Kar": 5465,
      "ĠÃ¼lkede": 5466,
      "Ġkadro": 5467,
      "Ġizle": 5468,
      "Ġikti": 5469,
      "Ġbeni": 5470,
      "ĠEdebiyat": 5471,
      "ĠÅŀen": 5472,
      "oo": 5473,
      "yolu": 5474,
      "afir": 5475,
      "Ġolumsuz": 5476,
      "Ġkonut": 5477,
      "ĠChrist": 5478,
      "imin": 5479,
      "ĠMahkem": 5480,
      "ĠTeknoloji": 5481,
      "Ġsizi": 5482,
      "ĠgerÃ§ekten": 5483,
      "oni": 5484,
      "ics": 5485,
      "Ġvb": 5486,
      "istin": 5487,
      "ĠÃ§ocuÄŁu": 5488,
      "ĠSem": 5489,
      "ĠRecep": 5490,
      "2014": 5491,
      "ĠÃĸmer": 5492,
      "Ġyakal": 5493,
      "alanan": 5494,
      "100": 5495,
      "eytin": 5496,
      "ĠyÄ±lÄ±nÄ±n": 5497,
      "70": 5498,
      "ĠdÃ¼ÅŁtÃ¼": 5499,
      "Ġheyec": 5500,
      "ĠIl": 5501,
      "zi": 5502,
      "ĠISBN": 5503,
      "ĠStad": 5504,
      "Ġyoluyla": 5505,
      "Ġoynanan": 5506,
      "Ã½": 5507,
      "ĠmeÅŁ": 5508,
      "ĠKÄ±sa": 5509,
      "ĠKulÃ¼bÃ¼": 5510,
      "Ġoynan": 5511,
      "ony": 5512,
      "omo": 5513,
      "ĠGÃ¼rcistan": 5514,
      "alarÄ±ndan": 5515,
      "Ġ32": 5516,
      "ÄŁÃ¼nÃ¼": 5517,
      "Ġetkisi": 5518,
      "Ġlez": 5519,
      "dek": 5520,
      "ref": 5521,
      "kanlÄ±ÄŁÄ±": 5522,
      "ĠÃĸrneÄŁin": 5523,
      "Ã¼mcek": 5524,
      "alardan": 5525,
      "Ġyem": 5526,
      "edia": 5527,
      "dÃ¼z": 5528,
      "ĠkÄ±l": 5529,
      "Ġplak": 5530,
      "Ġgerekmektedir": 5531,
      "Ġlira": 5532,
      "ĠEmniyet": 5533,
      "Ã¼kem": 5534,
      "ĠdÃ¼nyada": 5535,
      "ĠAdÄ±": 5536,
      "ĠKaymak": 5537,
      "ĠÅŁarkÄ±cÄ±larÄ±": 5538,
      "ĠMeksika": 5539,
      "landalÄ±": 5540,
      "nes": 5541,
      "ĠyÃ¼kseldi": 5542,
      "41": 5543,
      "Ph": 5544,
      "42": 5545,
      "ĠSK": 5546,
      "ĠLib": 5547,
      "ĠGÃ¼rcÃ¼": 5548,
      "Ã³n": 5549,
      "\"|": 5550,
      "ĠRed": 5551,
      "ardin": 5552,
      "Ġverilm": 5553,
      "ĠAÅŁaÄŁÄ±": 5554,
      "sch": 5555,
      "Ġtuz": 5556,
      "ĠOrd": 5557,
      "zu": 5558,
      "lukla": 5559,
      "52": 5560,
      "ĠbirleÅŁtir": 5561,
      "ĠTarÄ±m": 5562,
      "Ġteknoloji": 5563,
      "mesinin": 5564,
      "Ġarka": 5565,
      "ĠLev": 5566,
      "ĠbileÅŁ": 5567,
      "Ġbirinc": 5568,
      "ĠsÄ±rasÄ±yla": 5569,
      "irv": 5570,
      "Ã¼yorum": 5571,
      "ĠÅŁarkÄ±cÄ±lar": 5572,
      "ĠdesteÄŁi": 5573,
      "ect": 5574,
      "Ġyedi": 5575,
      "Ġsel": 5576,
      "ĠBon": 5577,
      "rit": 5578,
      "ĠÃ§ocuÄŁ": 5579,
      "fak": 5580,
      "gÃ¶r": 5581,
      "ĠsarÄ±": 5582,
      "Ġolumlu": 5583,
      "Ġgeleneksel": 5584,
      "ĠErkekler": 5585,
      "2013": 5586,
      "Ġmevcuttur": 5587,
      "Ġsalon": 5588,
      "Ġdurdur": 5589,
      "ĠkullanÄ±mÄ±": 5590,
      "Ġzaten": 5591,
      "altÄ±na": 5592,
      "mÄ±yor": 5593,
      "ĠYan": 5594,
      "ĠbÃ¶lÃ¼mÃ¼nde": 5595,
      "ĠSarÄ±": 5596,
      "ĠNik": 5597,
      "ĠkapÄ±": 5598,
      "ĠSlov": 5599,
      "Ġantren": 5600,
      "ĠIÅŁ": 5601,
      "SC": 5602,
      "ĠyÃ¶r": 5603,
      "Ġhalde": 5604,
      "Ġonline": 5605,
      "sem": 5606,
      "ure": 5607,
      "emli": 5608,
      "ĠiÃ§erir": 5609,
      "ĠmÃ¼sabak": 5610,
      "yaspor": 5611,
      "Ġgetiren": 5612,
      "kal": 5613,
      "ilip": 5614,
      "ĠBÃ¶ylece": 5615,
      "ĠHristiyan": 5616,
      "ail": 5617,
      "anlÄ±ÄŁÄ±": 5618,
      "Ä±mÄ±zda": 5619,
      "var": 5620,
      "ĠfiyatlarÄ±": 5621,
      "Ġorganizasyon": 5622,
      "Ġbol": 5623,
      "ĠÃ¶nlem": 5624,
      "ĠAlex": 5625,
      "ĠdÃ¶nemi": 5626,
      "ĠoluÅŁumlar": 5627,
      "ump": 5628,
      "lÄ±ca": 5629,
      "fik": 5630,
      "nÃ¼": 5631,
      "ĠVakfÄ±": 5632,
      "Ã¼kemmel": 5633,
      "ĠyÄ±llar": 5634,
      "ĠbaÅŁrol": 5635,
      "ilyalÄ±": 5636,
      "erg": 5637,
      "Ġdans": 5638,
      "ĠPaz": 5639,
      "avuz": 5640,
      "ĠKaradeniz": 5641,
      "Ġticari": 5642,
      "ĠYazÄ±": 5643,
      "ÄŁÄ±nÄ±n": 5644,
      "ĠTelevizyon": 5645,
      "ĠKariyeri": 5646,
      "Ġkalit": 5647,
      "elle": 5648,
      "larÄ±nÄ±zÄ±": 5649,
      "2011": 5650,
      "ĠyapÄ±lar": 5651,
      "ĠonlarÄ±": 5652,
      "Ġfikir": 5653,
      "enci": 5654,
      "ĠaÃ§tÄ±": 5655,
      "ĠDÃ¶nem": 5656,
      "ĠborÃ§": 5657,
      "Ġ1963": 5658,
      "aÅŁÄ±k": 5659,
      "Ä±mlarÄ±": 5660,
      "ĠDiz": 5661,
      "Ġmo": 5662,
      "Ä±rlar": 5663,
      "ĠSÃ¼leyman": 5664,
      "unlu": 5665,
      "Ġgelmektedir": 5666,
      "Ġarab": 5667,
      "Ġgenelinde": 5668,
      "ĠYaÅŁam": 5669,
      "Ġetkilen": 5670,
      "Ġotomatik": 5671,
      "ĠAngeles": 5672,
      "oya": 5673,
      "ĠPe": 5674,
      "Ġgr": 5675,
      "Ä±ÅŁma": 5676,
      "ĠgÃ¶revini": 5677,
      "Ġanlamda": 5678,
      "ĠÃ§alÄ±ÅŁmasÄ±": 5679,
      "ĠÄ°nÅŁ": 5680,
      "ĠâĢĺ": 5681,
      "ĠkeÅŁfedilmiÅŁtir": 5682,
      "Ġistiyorum": 5683,
      "ĠÃ§aplÄ±": 5684,
      "ĠYani": 5685,
      "inler": 5686,
      "ĠEst": 5687,
      "ĠMalatya": 5688,
      "aze": 5689,
      "ĠkadÄ±nlar": 5690,
      "Ġetraf": 5691,
      "ayÄ±f": 5692,
      "ĠkapalÄ±": 5693,
      "ĠAfrik": 5694,
      "ĠTwitter": 5695,
      "Ġday": 5696,
      "ĠManisa": 5697,
      "Ġap": 5698,
      "ĠyazÄ±lÄ±": 5699,
      "Ġhizmetleri": 5700,
      "ĠgÃ¶rÃ¼len": 5701,
      "ĠTeÅŁ": 5702,
      "2001": 5703,
      "Ġmm": 5704,
      "ĠEscort": 5705,
      "Ġressam": 5706,
      "Ġcen": 5707,
      "acÄ±k": 5708,
      "ĠMÃ¼hendis": 5709,
      "ĠBoÄŁ": 5710,
      "Ġdonan": 5711,
      "ĠHÄ±rvat": 5712,
      "75": 5713,
      "oph": 5714,
      "ĠMek": 5715,
      "Ġlir": 5716,
      "Ġgalib": 5717,
      "ĠSavun": 5718,
      "ĠEkonomi": 5719,
      "ĠMÃ¼zesi": 5720,
      "Ġten": 5721,
      "elerle": 5722,
      "BC": 5723,
      "ijinal": 5724,
      "ĠvirÃ¼s": 5725,
      "ĠkazanmÄ±ÅŁtÄ±r": 5726,
      "Ġtrafik": 5727,
      "ĠBiy": 5728,
      "Ġtane": 5729,
      "ela": 5730,
      "ĠbÃ¼r": 5731,
      "ĠSinema": 5732,
      "ĠsÃ¼resi": 5733,
      "Ġtutul": 5734,
      "ĠgÃ¼venilir": 5735,
      "Ġkendine": 5736,
      "ota": 5737,
      "ĠKaf": 5738,
      "Ġfazl": 5739,
      "ĠRecords": 5740,
      "ĠSakarya": 5741,
      "edilen": 5742,
      "ora": 5743,
      "Ð»": 5744,
      "ĠOdasÄ±": 5745,
      "ĠYaÄŁ": 5746,
      "ĠÄ°h": 5747,
      "layÄ±p": 5748,
      "ĠiÅŁgal": 5749,
      "ĠPolis": 5750,
      "uth": 5751,
      "Ġcilt": 5752,
      "ĠsÃ¼rÃ¼m": 5753,
      "ĠÅŀahin": 5754,
      "ĠdÃ¼n": 5755,
      "ĠÃ§oÄŁ": 5756,
      "vik": 5757,
      "ĠkarÄ±ÅŁtÄ±r": 5758,
      "ĠBizans": 5759,
      "ĠSadece": 5760,
      "2006": 5761,
      "raz": 5762,
      "ĠbatÄ±": 5763,
      "Ġpet": 5764,
      "ĠFlor": 5765,
      "ĠbÃ¶lgesi": 5766,
      "Ġyetk": 5767,
      "Ġtepki": 5768,
      "Ġkok": 5769,
      "ĠyukarÄ±": 5770,
      "ĠdoÄŁu": 5771,
      "Ġistih": 5772,
      "ouse": 5773,
      "dat": 5774,
      "ÄŁin": 5775,
      "ovid": 5776,
      "ĠBalÄ±kesir": 5777,
      "dev": 5778,
      "ĠBill": 5779,
      "ĠYayÄ±nlarÄ±": 5780,
      "IZ": 5781,
      "ĠamacÄ±": 5782,
      "duÄŁunu": 5783,
      "celi": 5784,
      "Ġetik": 5785,
      "Ġekibi": 5786,
      "ĠBod": 5787,
      "Ġkesim": 5788,
      "ĠÄ°lÃ§": 5789,
      "ĠmÃ¼ziÄŁi": 5790,
      "ĠFacebook": 5791,
      "ĠLit": 5792,
      "bistan": 5793,
      "ĠkullanÄ±lmaktadÄ±r": 5794,
      "ĠCel": 5795,
      "ĠTurizm": 5796,
      "ĠÅŀanlÄ±urfa": 5797,
      "Ġsuyu": 5798,
      "ĠÃ§ay": 5799,
      "Ġib": 5800,
      "Ġhakim": 5801,
      "ĠBulgaristan": 5802,
      "ĠyazdÄ±": 5803,
      "ĠErmeni": 5804,
      "ĠdÃ¼zenli": 5805,
      "ĠbÃ¶": 5806,
      "ĠgÃ¼venli": 5807,
      "ĠsanatÃ§Ä±larÄ±": 5808,
      "laj": 5809,
      "ĠolduÄŁuna": 5810,
      "Ġmutlaka": 5811,
      "ĠvazgeÃ§": 5812,
      "culu": 5813,
      "edek": 5814,
      "Ġmilli": 5815,
      "stagram": 5816,
      "Ä°Åŀ": 5817,
      "lÄ±ÄŁÄ±n": 5818,
      "Ġailesi": 5819,
      "Ġyiy": 5820,
      "leÅŁme": 5821,
      "Ġkanun": 5822,
      "eskop": 5823,
      "ĠiÅŁe": 5824,
      "ĠDoktor": 5825,
      "ĠÄ°let": 5826,
      "ĠÅŀey": 5827,
      "Ġyenil": 5828,
      "taydÄ±": 5829,
      "ĠaracÄ±lÄ±ÄŁÄ±yla": 5830,
      "ĠÃ¶y": 5831,
      "lÄ±dÄ±r": 5832,
      "Ġetme": 5833,
      "ĠgÃ¶nÃ¼l": 5834,
      "ĠApple": 5835,
      "ĠWil": 5836,
      "ÅŁembe": 5837,
      "2000": 5838,
      "ĠOtel": 5839,
      "Ġalternatif": 5840,
      "ĠCer": 5841,
      "ĠVil": 5842,
      "ĠMen": 5843,
      "Ġalma": 5844,
      "ĠJack": 5845,
      "Ġharc": 5846,
      "ĠBrezilyalÄ±": 5847,
      "Ġkanser": 5848,
      "Ġ1959": 5849,
      "Ġbisiklet": 5850,
      "Ġodak": 5851,
      "ĠGaz": 5852,
      "lÄ±lar": 5853,
      "Ġevde": 5854,
      "ĠOyuncular": 5855,
      "Ġkullanan": 5856,
      "uyoruz": 5857,
      "--": 5858,
      "lal": 5859,
      "ĠyapÄ±sÄ±": 5860,
      "Ġsur": 5861,
      "Ġistasyon": 5862,
      "Ġsporcu": 5863,
      "ny": 5864,
      "tuk": 5865,
      "ĠPara": 5866,
      "Ä±b": 5867,
      "Ġdiyor": 5868,
      "ĠkulÃ¼bÃ¼nde": 5869,
      "ĠSonuÃ§lar": 5870,
      "NGC": 5871,
      "kur": 5872,
      "ella": 5873,
      "amazan": 5874,
      "Ġhab": 5875,
      "Ġanne": 5876,
      "Ã¶lÃ§Ã¼mÃ¼": 5877,
      "Ġorijinal": 5878,
      "ĠyÃ¼rÃ¼y": 5879,
      "Ġsebebiyle": 5880,
      "oth": 5881,
      "ĠtakÄ±mÄ±nda": 5882,
      "Ġdeneyim": 5883,
      "ĠbÃ¼t": 5884,
      "Ġoda": 5885,
      "ĠLim": 5886,
      "usuf": 5887,
      "mamasÄ±": 5888,
      "ĠvÃ¼cu": 5889,
      "ĠTrans": 5890,
      "ical": 5891,
      "lÄ±ÄŁÄ±nda": 5892,
      "ĠÃ§Ä±kart": 5893,
      "azÄ±ÄŁ": 5894,
      "Ġimzal": 5895,
      "Ben": 5896,
      "Ġazalt": 5897,
      "Av": 5898,
      "ks": 5899,
      "ĠHo": 5900,
      "ĠKonseyi": 5901,
      "ĠOper": 5902,
      "ĠRom": 5903,
      "ĠbasketbolcularÄ±": 5904,
      "ĠMezar": 5905,
      "yer": 5906,
      "Ġstratej": 5907,
      "yÃ¼zÃ¼nde": 5908,
      "HA": 5909,
      "ydÄ±": 5910,
      "ĠÃ¶dem": 5911,
      "Ġsahne": 5912,
      "acaÄŁÄ±m": 5913,
      "andÄ±r": 5914,
      "Ġgide": 5915,
      "Ġ1962": 5916,
      "ĠGÃ¼reÅŁ": 5917,
      "ĠÃĸlÃ¼m": 5918,
      "acaÄŁÄ±nÄ±z": 5919,
      "Ä°ngiliz": 5920,
      "ĠgÃ¶sterir": 5921,
      "ĠÃ¶nceleri": 5922,
      "ĠyazÄ±lan": 5923,
      "ĠYet": 5924,
      "ayÄ±p": 5925,
      "ĠKav": 5926,
      "ĠÃĩÄ±k": 5927,
      "way": 5928,
      "Ġbizi": 5929,
      "pÄ±nar": 5930,
      "Ġsub": 5931,
      "ĠMiss": 5932,
      "Ġvermektedir": 5933,
      "ĠsÄ±nÄ±rlarÄ±": 5934,
      "Ġemekli": 5935,
      "olf": 5936,
      "TA": 5937,
      "ĠgeliÅŁim": 5938,
      "Ġtedbir": 5939,
      "Ġyazarlar": 5940,
      "ĠGiriÅŁ": 5941,
      "Ġrakam": 5942,
      "ĠÃ¶rÃ¼mcek": 5943,
      "ĠaÃ§Ä±lÄ±ÅŁ": 5944,
      "ĠForm": 5945,
      "âĢİ": 5946,
      "Ġoynamak": 5947,
      "ĠÃ§aÄŁr": 5948,
      "lardaki": 5949,
      "ĠAst": 5950,
      "Ġrestor": 5951,
      "ĠÃ¶ÄŁret": 5952,
      "ĠIII": 5953,
      "Or": 5954,
      "uman": 5955,
      "ĠulaÅŁtÄ±": 5956,
      "Ġcinsine": 5957,
      "gam": 5958,
      "seniz": 5959,
      "visi": 5960,
      "ĠDenizli": 5961,
      "Ġrock": 5962,
      "ĠHik": 5963,
      "Ġyola": 5964,
      "ĠalÄ±m": 5965,
      "ĠRich": 5966,
      "ĠHavalimanÄ±": 5967,
      "Ġalmaya": 5968,
      "Ġaj": 5969,
      "Ġveriyor": 5970,
      "Ġ1945": 5971,
      "color": 5972,
      "Ġihtiyac": 5973,
      "ĠÅŁehit": 5974,
      "ucusu": 5975,
      "ase": 5976,
      "ĠAll": 5977,
      "ĠKÄ±ÅŁ": 5978,
      "ĠFilmografi": 5979,
      "pa": 5980,
      "ĠYine": 5981,
      "darma": 5982,
      "ĠDoÄŁan": 5983,
      "Ġhapis": 5984,
      "ĠRen": 5985,
      "ĠiÅŁi": 5986,
      "Ġ1956": 5987,
      "ĠyÄ±lÄ±ndaki": 5988,
      "Ġsekiz": 5989,
      "Ġvokal": 5990,
      "ĠSok": 5991,
      "ĠkÃ¶kenli": 5992,
      "iet": 5993,
      "ĠtÄ±r": 5994,
      "ĠadayÄ±": 5995,
      "ĠÃĸzgÃ¼r": 5996,
      "Ġteleskop": 5997,
      "ĠsÃ¶yleyen": 5998,
      "Ġtavsiye": 5999,
      "ĠAN": 6000,
      "Ġide": 6001,
      "lendiÄŁi": 6002,
      "ipto": 6003,
      "ĠÄ°statistik": 6004,
      "allah": 6005,
      "yasal": 6006,
      "ĠØ": 6007,
      "ĠÄ°smail": 6008,
      "amik": 6009,
      "Ġrast": 6010,
      "ĠkatÄ±lÄ±mcÄ±": 6011,
      "Ġannesi": 6012,
      "ÅŁu": 6013,
      "Ġdemokr": 6014,
      "iller": 6015,
      "Ã¼lebilir": 6016,
      "ĠTÃ¼r": 6017,
      "ĠaÅŁÄ±rÄ±": 6018,
      "ordin": 6019,
      "ĠkiÅŁilerin": 6020,
      "ĠfiyatÄ±": 6021,
      "EY": 6022,
      "Ġetmesi": 6023,
      "Ġparishler": 6024,
      "Ġkims": 6025,
      "Ġhuzur": 6026,
      "Ġkonuk": 6027,
      "ĠÃ§ekti": 6028,
      "ĠBlack": 6029,
      "laÅŁma": 6030,
      "iew": 6031,
      "lanarak": 6032,
      "Ġilgilen": 6033,
      "ĠgeÃ§irdi": 6034,
      "Ġenerj": 6035,
      "ikat": 6036,
      "ĠKurumu": 6037,
      "||||": 6038,
      "olar": 6039,
      "ĠWest": 6040,
      "madÄ±ÄŁÄ±": 6041,
      "ĠMÃ¼ÅŁ": 6042,
      "Ġyasa": 6043,
      "ĠSamsung": 6044,
      "Ġert": 6045,
      "Ġalg": 6046,
      "Ġmakam": 6047,
      "ĠhaklarÄ±": 6048,
      "Am": 6049,
      "ava": 6050,
      "ĠgeldiÄŁi": 6051,
      "isti": 6052,
      "Ġkurucu": 6053,
      "US": 6054,
      "ecik": 6055,
      "ĠiÃ§indeki": 6056,
      "rat": 6057,
      "ĠgÃ¶zaltÄ±na": 6058,
      "ĠEuro": 6059,
      "ĠinsanÄ±": 6060,
      "ĠHen": 6061,
      "ĠcoÄŁraf": 6062,
      "ĠÅŀimdi": 6063,
      "ĠEyaleti": 6064,
      "kor": 6065,
      "ĠDal": 6066,
      "Ġkurdu": 6067,
      "Ġyerli": 6068,
      "ĠiÅŁlemi": 6069,
      "by": 6070,
      "ĠOff": 6071,
      "ĠaydÄ±n": 6072,
      "ĠistediÄŁiniz": 6073,
      "ois": 6074,
      "ĠhazÄ±rlanan": 6075,
      "Ġduyurdu": 6076,
      "Ġmeclis": 6077,
      "?\"": 6078,
      "ĠMay": 6079,
      "Ġmahk": 6080,
      "2005": 6081,
      "lon": 6082,
      "ĠSÄ±n": 6083,
      "Ġortadan": 6084,
      "yip": 6085,
      "ĠCup": 6086,
      "AV": 6087,
      "ĠdeÄŁiÅŁiklik": 6088,
      "layÄ±cÄ±": 6089,
      "tle": 6090,
      "Ġyasal": 6091,
      "ĠYahudi": 6092,
      "ĠLu": 6093,
      "ĠtakÄ±mÄ±na": 6094,
      "Ġneredeyse": 6095,
      "ĠGÃ¼nÃ¼mÃ¼zde": 6096,
      "amayan": 6097,
      "2004": 6098,
      "Ġiyil": 6099,
      "uÄŁla": 6100,
      "esun": 6101,
      "opa": 6102,
      "ĠdÄ±ÅŁarÄ±": 6103,
      "ĠCeza": 6104,
      "Ġ38": 6105,
      "Ġterk": 6106,
      "ĠOL": 6107,
      "Ġcol": 6108,
      "Ġikili": 6109,
      "ĠsÃ¼s": 6110,
      "Ġolmadan": 6111,
      "ĠyÃ¼zey": 6112,
      "ĠÄ°rlanda": 6113,
      "ĠCamii": 6114,
      "SO": 6115,
      "ales": 6116,
      "ĠOlay": 6117,
      "Ġtakv": 6118,
      "Ġyolcu": 6119,
      "ĠbÃ¼nyesinde": 6120,
      "EB": 6121,
      "lendirme": 6122,
      "fesÃ¶r": 6123,
      "ĠFrank": 6124,
      "ĠToplam": 6125,
      "Ġrenkli": 6126,
      "memiÅŁ": 6127,
      "ĠsipariÅŁ": 6128,
      "lanacak": 6129,
      "Ġaray": 6130,
      "Ġserisi": 6131,
      "Ġradyo": 6132,
      "Ġ300": 6133,
      "ĠkalÄ±n": 6134,
      "Ġ01": 6135,
      "ĠNiÅŁ": 6136,
      "dÃ¼str": 6137,
      "liÄŁinden": 6138,
      "Ġifadelerini": 6139,
      "ĠSw": 6140,
      "ĠÅŁef": 6141,
      "YA": 6142,
      "Ġdili": 6143,
      "ĠsÃ¼reci": 6144,
      "leyici": 6145,
      "ĠStu": 6146,
      "ĠeÄŁer": 6147,
      "Ġkoruma": 6148,
      "Rus": 6149,
      "ĠKÃ¶r": 6150,
      "xt": 6151,
      "Ġnedeni": 6152,
      "ksiyon": 6153,
      "Ġmodeli": 6154,
      "Ġfaiz": 6155,
      "okul": 6156,
      "ĠÃ§izgi": 6157,
      "ĠKing": 6158,
      "Ġuzay": 6159,
      "Ġ1940": 6160,
      "larÄ±mÄ±zÄ±": 6161,
      "Ġdosy": 6162,
      "soy": 6163,
      "ĠPremi": 6164,
      "Ġ1958": 6165,
      "landÄ±ÄŁÄ±": 6166,
      "yaf": 6167,
      "ĠoynadÄ±ÄŁÄ±": 6168,
      "ĠSavunma": 6169,
      "ĠDik": 6170,
      "ĠonlarÄ±n": 6171,
      "Ġimk": 6172,
      "jen": 6173,
      "In": 6174,
      "ademi": 6175,
      "oyu": 6176,
      "ĠÃĩarÅŁamba": 6177,
      "osunu": 6178,
      "ĠbeÄŁen": 6179,
      "Ġharf": 6180,
      "OVID": 6181,
      "Ġanim": 6182,
      "Ã¼yoruz": 6183,
      "ĠLG": 6184,
      "ĠkÃ¶yÃ¼": 6185,
      "Ġtehdit": 6186,
      "otik": 6187,
      "lasman": 6188,
      "ĠverilmiÅŁtir": 6189,
      "Ġelektronik": 6190,
      "ĠÎ": 6191,
      "ĠÅŁikayet": 6192,
      "ĠUnited": 6193,
      "ato": 6194,
      "usunu": 6195,
      "ĠBilg": 6196,
      "Ġmezar": 6197,
      "ĠbarÄ±ndÄ±r": 6198,
      "Ġdiplom": 6199,
      "Ġimparator": 6200,
      "ĠkontluÄŁunda": 6201,
      "Ġduygu": 6202,
      "Ġkoruy": 6203,
      "ĠEc": 6204,
      "Ġsonuna": 6205,
      "ĠsahipliÄŁi": 6206,
      "ĠOrman": 6207,
      "ĠGÃ¶rÃ¼n": 6208,
      "ĠgeÃ§er": 6209,
      "Ġtor": 6210,
      "ull": 6211,
      "ĠyÃ¼zyÄ±lÄ±n": 6212,
      "ĠTrabzonspor": 6213,
      "ĠmÃ¼zisyen": 6214,
      "Ġtablo": 6215,
      "larÄ±m": 6216,
      "Ġmant": 6217,
      "Ġcami": 6218,
      "esh": 6219,
      "ĠdavranÄ±ÅŁ": 6220,
      "ĠPek": 6221,
      "ĠdÃ¶rdÃ¼ncÃ¼": 6222,
      "ĠYok": 6223,
      "ĠayrÄ±ldÄ±": 6224,
      "iÅŁe": 6225,
      "atÄ±cÄ±": 6226,
      "zan": 6227,
      "Ġolmaya": 6228,
      "ĠÄ°letiÅŁim": 6229,
      "ĠgÃ¼l": 6230,
      "Ä±lÄ±mÄ±": 6231,
      "amin": 6232,
      "ĠKast": 6233,
      "Ġkamer": 6234,
      "ĠhÃ¼cr": 6235,
      "ĠOne": 6236,
      "Ġklasik": 6237,
      "stanbul": 6238,
      "ĠtakÄ±mlarÄ±": 6239,
      "Ä±lmaz": 6240,
      "ĠGÃ¶rev": 6241,
      "Ġsitesinde": 6242,
      "kent": 6243,
      "Ġopsiyon": 6244,
      "ko": 6245,
      "so": 6246,
      "ĠSekret": 6247,
      "Ã¼tfen": 6248,
      "Son": 6249,
      "ĠkiÅŁiye": 6250,
      "ĠSig": 6251,
      "Ġ1957": 6252,
      "ĠElazÄ±ÄŁ": 6253,
      "emizin": 6254,
      "Ġhikay": 6255,
      "allen": 6256,
      "Ã¼phan": 6257,
      "lamÄ±ÅŁtÄ±r": 6258,
      "Ġkadros": 6259,
      "Ġlideri": 6260,
      "ĠgelmiÅŁtir": 6261,
      "ĠZel": 6262,
      "ĠÃ¶nemlidir": 6263,
      "ĠAR": 6264,
      "Ġediliyor": 6265,
      "ĠÃ§alÄ±ÅŁtÄ±r": 6266,
      "Ġolursa": 6267,
      "Ġref": 6268,
      "ĠsÃ¶zleÅŁme": 6269,
      "ĠbiÃ§imde": 6270,
      "iner": 6271,
      "ĠotobÃ¼s": 6272,
      "ĠAÅŁk": 6273,
      "Ġ07": 6274,
      "Ġkilometre": 6275,
      "ĠFK": 6276,
      "Ġsergil": 6277,
      "Ġez": 6278,
      "Ġsiteleri": 6279,
      "ĠKatalog": 6280,
      "ĠsÄ±v": 6281,
      "ĠLi": 6282,
      "ĠTurk": 6283,
      "Ġgizli": 6284,
      "ĠÃĩelik": 6285,
      "ĠThom": 6286,
      "Ġfabrik": 6287,
      "ĠNec": 6288,
      "Ġprojesi": 6289,
      "mayacak": 6290,
      "family": 6291,
      "iel": 6292,
      "Ġgelin": 6293,
      "ĠPerÅŁembe": 6294,
      "ĠdoÄŁrult": 6295,
      "sit": 6296,
      "ĠBununla": 6297,
      "ĠFa": 6298,
      "otball": 6299,
      "Ġderg": 6300,
      "ĠarkadaÅŁÄ±": 6301,
      "ĠAKP": 6302,
      "ĠÄ°skoÃ§": 6303,
      "ÄŁer": 6304,
      "lardÄ±": 6305,
      "bal": 6306,
      "Ġkel": 6307,
      "ĠLove": 6308,
      "ĠOrgan": 6309,
      "DI": 6310,
      "Ġtakdir": 6311,
      "ĠettiÄŁini": 6312,
      "doÄŁu": 6313,
      "97": 6314,
      "ĠhakkÄ±": 6315,
      "ĠAziz": 6316,
      "LÄ°": 6317,
      "ĠMÃ¼n": 6318,
      "Ġfestiv": 6319,
      "Ġfelsef": 6320,
      "Ġdiren": 6321,
      "Ġdeprem": 6322,
      "Ġters": 6323,
      "ĠÃ§ey": 6324,
      "Ġharek": 6325,
      "Ġbayram": 6326,
      "Ã¼yada": 6327,
      "ĠÄ°ÅŁlet": 6328,
      "ĠTayyip": 6329,
      "back": 6330,
      "Ġbirik": 6331,
      "ĠkayÄ±p": 6332,
      "itÃ¶r": 6333,
      "laÅŁÄ±k": 6334,
      "Ġdefn": 6335,
      "Ġ;": 6336,
      "Ġimkan": 6337,
      "ĠsoÄŁuk": 6338,
      "ĠÃ¼retimi": 6339,
      "yr": 6340,
      "ĠEner": 6341,
      "ĠÅŀampiyonlar": 6342,
      "tel": 6343,
      "Ġbed": 6344,
      "osa": 6345,
      "Ġyarg": 6346,
      "Ġunvan": 6347,
      "Ġreh": 6348,
      "ĠaÃ§Ä±lan": 6349,
      "ĠparÃ§a": 6350,
      "Ġseri": 6351,
      "Ġcinsel": 6352,
      "don": 6353,
      "Ġzamanlarda": 6354,
      "Ø§Ù": 6355,
      "yumu": 6356,
      "ĠtanÄ±": 6357,
      "ĠYapÄ±lan": 6358,
      "ĠÃ§apÄ±nda": 6359,
      "Ġesnaf": 6360,
      "Ġince": 6361,
      "Ġgiderek": 6362,
      "ĠÃ¶nde": 6363,
      "liÄŁinin": 6364,
      "Ġkilis": 6365,
      "Ġstad": 6366,
      "ĠPKK": 6367,
      "ĠgeÃ§erli": 6368,
      "Ġbilimsel": 6369,
      "ĠÃ¼niversite": 6370,
      "ĠSes": 6371,
      "ĠSED": 6372,
      "ĠFre": 6373,
      "Ġmetr": 6374,
      "ĠBahÃ§": 6375,
      "Ġpilot": 6376,
      "Ġolanak": 6377,
      "ĠkonuÅŁan": 6378,
      "tain": 6379,
      "ĠmÃ¼ziÄŁ": 6380,
      "Ġ1955": 6381,
      "ors": 6382,
      "Ġturizm": 6383,
      "ĠCadd": 6384,
      "Ġistatistik": 6385,
      "2002": 6386,
      "ĠkaynaÄŁÄ±": 6387,
      "emiÅŁ": 6388,
      "iver": 6389,
      "ĠYusuf": 6390,
      "ĠteÅŁkil": 6391,
      "inizde": 6392,
      "ĠolmasÄ±nÄ±": 6393,
      "Ã¶ÄŁretim": 6394,
      "ĠgÃ¶rsel": 6395,
      "ĠaÅŁk": 6396,
      "ĠÃ¼stÃ¼n": 6397,
      "ĠkÃ¶yler": 6398,
      "Ã¼mÃ¼zdeki": 6399,
      "Ġvit": 6400,
      "iki": 6401,
      "ĠyapÄ±mcÄ±": 6402,
      "ĠbarÄ±ÅŁ": 6403,
      "Ġpot": 6404,
      "ĠÃ§evre": 6405,
      "Ġbozuk": 6406,
      "ĠSilah": 6407,
      "adalÄ±": 6408,
      "ĠâĢ¦": 6409,
      "vel": 6410,
      "ezerv": 6411,
      "Ġanlamlara": 6412,
      "ĠhÄ±zla": 6413,
      "ĠMi": 6414,
      "ĠboÄŁ": 6415,
      "Ã¼kle": 6416,
      "ĠtakÄ±mÄ±n": 6417,
      "Ġdramatik": 6418,
      "Ġederken": 6419,
      "Ġoynayan": 6420,
      "gro": 6421,
      "aza": 6422,
      "ĠAmeri": 6423,
      "dere": 6424,
      "ĠOrhan": 6425,
      "ĠSayÄ±n": 6426,
      "ehr": 6427,
      "ĠkÃ¼ltÃ¼rel": 6428,
      "ĠModel": 6429,
      "Ġbi": 6430,
      "abileceÄŁiniz": 6431,
      "lup": 6432,
      "Ġmeslek": 6433,
      "usuna": 6434,
      "ĠÃ§ocuklar": 6435,
      "Ġkara": 6436,
      "ĠÃ¶lÃ§Ã¼de": 6437,
      "Ġorada": 6438,
      "Ġwith": 6439,
      "Ġmarka": 6440,
      "Ã©r": 6441,
      "ĠkaÃ§Ä±r": 6442,
      "ĠamaÃ§lÄ±": 6443,
      "ĠMacaristan": 6444,
      "irli": 6445,
      "ĠvÃ¼cut": 6446,
      "ĠkatÄ±ldÄ±ÄŁÄ±": 6447,
      "Ä°ngilizce": 6448,
      "ĠÃ¶nceden": 6449,
      "ĠBunu": 6450,
      "ĠÃ¶yle": 6451,
      "ĠÅŁif": 6452,
      "Ġkaps": 6453,
      "Ġmodelleri": 6454,
      "ĠDefans": 6455,
      "Ġsorunu": 6456,
      "Ġ05": 6457,
      "sizlik": 6458,
      "Ġkriz": 6459,
      "Ġstyle": 6460,
      "Ġ(\"": 6461,
      "ĠÃ§alÄ±ÅŁmaya": 6462,
      "Ġesas": 6463,
      "ĠdÃ¼ÅŁÃ¼nÃ¼l": 6464,
      "ĠGeorge": 6465,
      "Ä±lÄ±p": 6466,
      "isiz": 6467,
      "Ġtoplu": 6468,
      "ĠoluÅŁtuÄŁu": 6469,
      "ĠGiresun": 6470,
      "Ġvad": 6471,
      "ĠtÄ±p": 6472,
      "aÄŁÄ±na": 6473,
      "ĠkÃ¼m": 6474,
      "ĠKamp": 6475,
      "ĠGro": 6476,
      "ĠÅŁeyi": 6477,
      "ĠBarÄ±ÅŁ": 6478,
      "ĠBitcoin": 6479,
      "Ġteleskopla": 6480,
      "eliyat": 6481,
      "Ã¶yl": 6482,
      "ĠdÃ¼ÅŁman": 6483,
      "ĠLou": 6484,
      "tral": 6485,
      "Ġederim": 6486,
      "ĠgerÃ§ekleÅŁen": 6487,
      "laÅŁmasÄ±": 6488,
      "ĠbahÃ§": 6489,
      "ĠgeliÅŁtirilen": 6490,
      "ĠnumaralÄ±": 6491,
      "ĠCOVID": 6492,
      "ĠAntik": 6493,
      "Ġgerektir": 6494,
      "ĠitibarÄ±": 6495,
      "ĠatandÄ±": 6496,
      "Ġ1954": 6497,
      "ĠDanimarka": 6498,
      "over": 6499,
      "SA": 6500,
      "ven": 6501,
      "ÄŁinden": 6502,
      "FC": 6503,
      "ĠRek": 6504,
      "ĠiÅŁlev": 6505,
      "ĠkoronavirÃ¼s": 6506,
      "Ġmensubu": 6507,
      "Ġbundan": 6508,
      "ĠKoÃ§": 6509,
      "lerimizi": 6510,
      "ĠolduÄŁundan": 6511,
      "ĠgÃ¶rÃ¼ntÃ¼l": 6512,
      "ĠMotor": 6513,
      "ĠNorth": 6514,
      "Ġ33": 6515,
      "kÄ±nma": 6516,
      "ĠPeki": 6517,
      "ĠbaÅŁlangÄ±Ã§": 6518,
      "Ġbinlerce": 6519,
      "Â´": 6520,
      "ĠaraÅŁtÄ±rmalar": 6521,
      "ĠbiÃ§im": 6522,
      "emey": 6523,
      "Ġ37": 6524,
      "ĠgÃ¼ndem": 6525,
      "omen": 6526,
      "Ġbelirtildi": 6527,
      "ĠkavuÅŁ": 6528,
      "ĠGÃ¶kyÃ¼zÃ¼nde": 6529,
      "Ġila": 6530,
      "2003": 6531,
      "ĠadamÄ±": 6532,
      "ĠhikÃ¢y": 6533,
      "ĠEng": 6534,
      "Ġdokun": 6535,
      "ĠHakkÄ±nda": 6536,
      "EO": 6537,
      "bank": 6538,
      "ew": 6539,
      "Ġmahkem": 6540,
      "ĠKurum": 6541,
      "ĠhazÄ±rlÄ±k": 6542,
      "ĠyatÄ±rÄ±mcÄ±": 6543,
      "ĠaÃ§Ä±ldÄ±": 6544,
      "ĠSEDS": 6545,
      "log": 6546,
      "lec": 6547,
      "lob": 6548,
      "atlar": 6549,
      "ĠAraÃ§": 6550,
      "ahmet": 6551,
      "ĠVic": 6552,
      "ĠEtiketler": 6553,
      "vey": 6554,
      "ðŁ": 6555,
      "olk": 6556,
      "ferans": 6557,
      "Å¡": 6558,
      "ĠVali": 6559,
      "ĠArdÄ±ndan": 6560,
      "Ġdis": 6561,
      "ĠMHP": 6562,
      "Ġmakal": 6563,
      "MA": 6564,
      "ĠgÃ¼mÃ¼ÅŁ": 6565,
      "ĠdoÄŁrultusunda": 6566,
      "sp": 6567,
      "ĠalÄ±p": 6568,
      "ĠBelediyespor": 6569,
      "amay": 6570,
      "ĠAile": 6571,
      "ĠEge": 6572,
      "ĠBritanya": 6573,
      "ĠDair": 6574,
      "ĠeÅŁy": 6575,
      "aÄŁÄ±nda": 6576,
      "Ġsevk": 6577,
      "lish": 6578,
      "98": 6579,
      "Ġserg": 6580,
      "Ġbirden": 6581,
      "ĠKonu": 6582,
      "Ġtabi": 6583,
      "ĠPazartesi": 6584,
      "Ġkaybeden": 6585,
      "ĠCr": 6586,
      "ope": 6587,
      "lerinizi": 6588,
      "ĠMimar": 6589,
      "Ġ()": 6590,
      "ĠuygulamasÄ±": 6591,
      "ĠTour": 6592,
      "ĠÃ¶den": 6593,
      "ĠÃ§alÄ±ÅŁmalarÄ±nÄ±": 6594,
      "ĠcumhurbaÅŁ": 6595,
      "Ä±klÄ±": 6596,
      "ĠÃ§ekilmiÅŁ": 6597,
      "ĠdolayÄ±sÄ±yla": 6598,
      "ĠHey": 6599,
      "Ġbask": 6600,
      "encer": 6601,
      "umb": 6602,
      "Ġsalg": 6603,
      "Ġsembol": 6604,
      "Ġdi": 6605,
      "ĠadÄ±nda": 6606,
      "Ġ00": 6607,
      "ĠSav": 6608,
      "tÄ±n": 6609,
      "ĠseÃ§imlerinde": 6610,
      "ĠÃĩevre": 6611,
      "ĠMax": 6612,
      "Ġyaparken": 6613,
      "Ġseyir": 6614,
      "ĠBÃ¼l": 6615,
      "ĠkazanÃ§": 6616,
      "ĠBunlar": 6617,
      "Ã¼lÃ¼k": 6618,
      "landiya": 6619,
      "ĠKoreli": 6620,
      "ĠdeÄŁeri": 6621,
      "ĠCumartesi": 6622,
      "ĠprogramlarÄ±": 6623,
      "ĠÃ§Ä±kmÄ±ÅŁtÄ±r": 6624,
      "ĠiliÅŁkiler": 6625,
      "okol": 6626,
      "larÄ±mÄ±za": 6627,
      "uncu": 6628,
      "Ġ48": 6629,
      "ĠKanadalÄ±": 6630,
      "ĠbunlarÄ±n": 6631,
      "Ak": 6632,
      "arlÄ±": 6633,
      "ĠhastalÄ±": 6634,
      "66": 6635,
      "Ġbelediyeleri": 6636,
      "ĠkulÃ¼pleri": 6637,
      "maraÅŁ": 6638,
      "ĠcivarÄ±nda": 6639,
      "ĠyangÄ±n": 6640,
      "Ġ02": 6641,
      "Ġkahraman": 6642,
      "ei": 6643,
      "ĠmÃ¼kemmel": 6644,
      "ĠÅŁer": 6645,
      "ĠÅŁub": 6646,
      "ĠkÄ±sÄ±t": 6647,
      "ĠÅŁunlarÄ±": 6648,
      "Ġfirma": 6649,
      "ĠNotlar": 6650,
      "ĠKel": 6651,
      "ĠFotoÄŁraf": 6652,
      "ĠÃ¶lmÃ¼ÅŁtÃ¼r": 6653,
      "Ġgalibiyet": 6654,
      "Ġkuru": 6655,
      "ĠMahkemesi": 6656,
      "ĠNak": 6657,
      "Ġsaf": 6658,
      "emesi": 6659,
      "ĠiliÅŁkileri": 6660,
      "tÄ±ÄŁÄ±nÄ±": 6661,
      "ĠaÃ§Ä±klandÄ±": 6662,
      "ĠAkademi": 6663,
      "abileceÄŁini": 6664,
      "ĠÅŁeyler": 6665,
      "ĠHaned": 6666,
      "ĠHor": 6667,
      "danÄ±": 6668,
      "Ġhisset": 6669,
      "ee": 6670,
      "kim": 6671,
      "iro": 6672,
      "Ġ1920": 6673,
      "ĠÅŁeker": 6674,
      "Ġsabit": 6675,
      "ĠKamu": 6676,
      "tek": 6677,
      "Ġbilet": 6678,
      "ESÄ°": 6679,
      "ĠAbdullah": 6680,
      "cÄ±nÄ±n": 6681,
      "adet": 6682,
      "Ġ1946": 6683,
      "ĠsatÄ±ÅŁa": 6684,
      "cileri": 6685,
      "arÄ±m": 6686,
      "ĠzayÄ±f": 6687,
      "eÄŁe": 6688,
      "ĠnÃ¼fusunun": 6689,
      "Ġtoplamda": 6690,
      "ediler": 6691,
      "ĠTÃ¼rkmen": 6692,
      "ĠJon": 6693,
      "Ġkuzeyinde": 6694,
      "ĠTemsil": 6695,
      "Ġfinalde": 6696,
      "Ġsemt": 6697,
      "familyasÄ±na": 6698,
      "ĠKa": 6699,
      "Ġhis": 6700,
      "ĠAlp": 6701,
      "posta": 6702,
      "ĠPo": 6703,
      "ĠHarek": 6704,
      "riyet": 6705,
      "ĠParkÄ±": 6706,
      "lot": 6707,
      "Ġbelki": 6708,
      "Ġsenary": 6709,
      "ĠReal": 6710,
      "ĠHep": 6711,
      "ĠNaz": 6712,
      "ĠEmre": 6713,
      "ĠÃľyesi": 6714,
      "wood": 6715,
      "Ġbomb": 6716,
      "ĠJean": 6717,
      "ding": 6718,
      "amonu": 6719,
      "ĠYarÄ±": 6720,
      "ĠAsker": 6721,
      "ĠHers": 6722,
      "uzu": 6723,
      "ĠtanrÄ±": 6724,
      "tih": 6725,
      "ĠYÃ¼zÃ¶lÃ§Ã¼mÃ¼": 6726,
      "ĠEmir": 6727,
      "IÅŀ": 6728,
      "ektÃ¶rÃ¼": 6729,
      "ĠHatay": 6730,
      "Ġtez": 6731,
      "ĠHel": 6732,
      "ĠtatlÄ±": 6733,
      "\")": 6734,
      "Ġyenilen": 6735,
      "ĠGerÃ§ek": 6736,
      "cy": 6737,
      "ĠlazÄ±m": 6738,
      "ĠAnay": 6739,
      "ĠKaÃ§": 6740,
      "Ġkeyif": 6741,
      "ĠdanÄ±ÅŁman": 6742,
      "elÃ§": 6743,
      "ĠVir": 6744,
      "ĠUl": 6745,
      "ĠSuper": 6746,
      "Ġgetirildi": 6747,
      "Ġdiyerek": 6748,
      "kon": 6749,
      "ĠTav": 6750,
      "ĠTep": 6751,
      "ĠDes": 6752,
      "ukur": 6753,
      "Ġkazananlar": 6754,
      "ĠDevleti": 6755,
      "95": 6756,
      "ĠEdir": 6757,
      "Ã¼mr": 6758,
      "ĠRize": 6759,
      "eton": 6760,
      "Ġihracat": 6761,
      "Ġmuht": 6762,
      "64": 6763,
      "ĠalanlarÄ±": 6764,
      "Ch": 6765,
      "rix": 6766,
      "ĠgeÃ§tiÄŁimiz": 6767,
      "ĠTo": 6768,
      "ĠbaÅŁk": 6769,
      "ĠsonuÃ§lar": 6770,
      "usunun": 6771,
      "ĠiÅŁlemleri": 6772,
      "Ġemin": 6773,
      "ĠuÄŁraÅŁ": 6774,
      "otos": 6775,
      "tip": 6776,
      "ĠdÃ¼ÅŁÃ¼ÅŁ": 6777,
      "Ġsuy": 6778,
      "ĠHint": 6779,
      "ĠpeÅŁ": 6780,
      "Ġedip": 6781,
      "ĠFranc": 6782,
      "Ġkorku": 6783,
      "Ġ1943": 6784,
      "ĠbaÅŁkanlarÄ±": 6785,
      "tiÄŁimiz": 6786,
      "ĠYahud": 6787,
      "Ġyararlan": 6788,
      "Ġhip": 6789,
      "ĠhatÄ±rlat": 6790,
      "Ġsistemleri": 6791,
      "orta": 6792,
      "Ġuyum": 6793,
      "Ġaks": 6794,
      "do": 6795,
      "CD": 6796,
      "ĠoluÅŁturur": 6797,
      "ĠJul": 6798,
      "ĠÃĸÄŁretmen": 6799,
      "ĠyarÄ±m": 6800,
      "ĠseÃ§en": 6801,
      "tifak": 6802,
      "ĠSalÄ±": 6803,
      "Ġ1944": 6804,
      "ĠgÃ¶rÃ¼nÃ¼m": 6805,
      "ĠsÃ¶yley": 6806,
      "ĠBilimler": 6807,
      "Ġ1930": 6808,
      "ĠMadrid": 6809,
      "Ġrakip": 6810,
      "ius": 6811,
      "insel": 6812,
      "áĥĺ": 6813,
      "Ġbulundur": 6814,
      "Ġsakin": 6815,
      "ĠMedya": 6816,
      "ĠTut": 6817,
      "top": 6818,
      "ĠCD": 6819,
      "ĠParlament": 6820,
      "Ġpl": 6821,
      "Ġtamamlanan": 6822,
      "ĠBizim": 6823,
      "cÃ¼k": 6824,
      "mara": 6825,
      "paz": 6826,
      "ĠBayan": 6827,
      "uÅŁu": 6828,
      "ABER": 6829,
      "Ġ04": 6830,
      "Ġasla": 6831,
      "ĠtanÄ±ÅŁ": 6832,
      "ETÃĸ": 6833,
      "Ġhaz": 6834,
      "ĠRamazan": 6835,
      "ĠÃ§alÄ±ÅŁÄ±yor": 6836,
      "ĠgÃ¶stermektedir": 6837,
      "axy": 6838,
      "OB": 6839,
      "irken": 6840,
      "Ġheykel": 6841,
      "ashington": 6842,
      "atlÄ±": 6843,
      "Ä°D": 6844,
      "ĠÄ°Ã§iÅŁleri": 6845,
      "ĠFinlandiya": 6846,
      "ĠacÄ±": 6847,
      "abor": 6848,
      "ĠÃ¶dÃ¼lÃ¼": 6849,
      "ĠolacaÄŁÄ±nÄ±": 6850,
      "itir": 6851,
      "ĠbaÄŁlan": 6852,
      "ting": 6853,
      "ĠWal": 6854,
      "ĠFilistin": 6855,
      "Ġkurs": 6856,
      "ĠoluÅŁmaktadÄ±r": 6857,
      "ĠÅŀube": 6858,
      "Ä±sÄ±yla": 6859,
      "ĠUÄŁur": 6860,
      "Ġ1948": 6861,
      "ĠForvet": 6862,
      "cret": 6863,
      "ĠÃĩak": 6864,
      "Ġdenir": 6865,
      "ĠCaddesi": 6866,
      "ĠÅŁampiyonu": 6867,
      "Ġfonksiyon": 6868,
      "alarla": 6869,
      "Ġces": 6870,
      "ĠoluÅŁturan": 6871,
      "ĠKanal": 6872,
      "ĠSÄ±rbistan": 6873,
      "ĠGÃ¶lÃ¼": 6874,
      "ĠkarÅŁÄ±ya": 6875,
      "Ġgazetec": 6876,
      "ĠGÃľN": 6877,
      "ĠbÃ¶ylece": 6878,
      "Ġbron": 6879,
      "El": 6880,
      "ĠÃĸrgÃ¼t": 6881,
      "Ġhediye": 6882,
      "GÃ¼n": 6883,
      "ĠOtom": 6884,
      "Ġant": 6885,
      "Ġverilir": 6886,
      "Ø±": 6887,
      "Ä±sÄ±nÄ±z": 6888,
      "ĠBirÃ§ok": 6889,
      "ĠIntern": 6890,
      "ĠTokyo": 6891,
      "Ġdini": 6892,
      "ĠAda": 6893,
      "iyim": 6894,
      "ĠKaya": 6895,
      "indir": 6896,
      "Ġkesinlikle": 6897,
      "isyenler": 6898,
      "mon": 6899,
      "ĠMit": 6900,
      "ĠÄ±r": 6901,
      "Ġkullanmak": 6902,
      "ĠCap": 6903,
      "Ġvergi": 6904,
      "ĠbakÄ±ÅŁ": 6905,
      "ĠyÃ¼kselt": 6906,
      "TI": 6907,
      "Ġsayede": 6908,
      "ĠkullanÄ±labilir": 6909,
      "TÃľ": 6910,
      "ja": 6911,
      "Ġbeden": 6912,
      "dÄ±ÄŁÄ±nÄ±": 6913,
      "ĠRomanya": 6914,
      "ĠgÃ¼cÃ¼": 6915,
      "ĠGol": 6916,
      "ush": 6917,
      "Ġdenetim": 6918,
      "Ġucuz": 6919,
      "FF": 6920,
      "Ġharika": 6921,
      "ĠdirektÃ¶rler": 6922,
      "ĠkitaplarÄ±": 6923,
      "ĠMaked": 6924,
      "ĠdoÄŁan": 6925,
      "Ġkoleksiyon": 6926,
      "iciler": 6927,
      "Ġbenzeri": 6928,
      "ezya": 6929,
      "68": 6930,
      "AÄŀ": 6931,
      "Ġ(;": 6932,
      "ĠÃĩam": 6933,
      "ĠPic": 6934,
      "ĠÃĩank": 6935,
      "ĠgÃ¶rÃ¼nt": 6936,
      "ĠSÄ±": 6937,
      "Ġfilmin": 6938,
      "ĠÃ¶ncesinde": 6939,
      "ĠDÃ¼zen": 6940,
      "Ġedebilirsiniz": 6941,
      ")'": 6942,
      "Ä°s": 6943,
      "Ġmuhal": 6944,
      "Ġno": 6945,
      "ĠgÃ¶rÃ¼lÃ¼r": 6946,
      "bay": 6947,
      "Ġbitk": 6948,
      "ĠkanÄ±t": 6949,
      "ĠClub": 6950,
      "Ġ65": 6951,
      "ĠsÃ¶ylen": 6952,
      "áĥĲ": 6953,
      "Ġkahv": 6954,
      "ĠMilletler": 6955,
      "Ġuzat": 6956,
      "ĠinsanÄ±n": 6957,
      "ĠgerekÃ§": 6958,
      "ĠBenim": 6959,
      "ĠOnur": 6960,
      "board": 6961,
      "ĠKork": 6962,
      "ĠrolÃ¼": 6963,
      "ĠgÄ±da": 6964,
      "bakanÄ±": 6965,
      "Phone": 6966,
      "Ã£": 6967,
      "Ġ1953": 6968,
      "ĠbaÅŁladÄ±ÄŁÄ±": 6969,
      "ĠÄ°liÅŁ": 6970,
      "ĠBÃ¼tÃ¼n": 6971,
      "ĠPost": 6972,
      "ĠWat": 6973,
      "ĠHayvan": 6974,
      "ĠHakan": 6975,
      "ĠPeter": 6976,
      "ĠkÃ¼resel": 6977,
      "ener": 6978,
      "Ġmuhtem": 6979,
      "anik": 6980,
      "ĠMuÄŁla": 6981,
      "Ġzirv": 6982,
      "Ġyetenek": 6983,
      "ĠMik": 6984,
      "ĠbaÅŁlamÄ±ÅŁ": 6985,
      "Ġ34": 6986,
      "ĠGÃ¼ndem": 6987,
      "ĠKes": 6988,
      "ĠGe": 6989,
      "ĠsayÄ±m": 6990,
      "UT": 6991,
      "ander": 6992,
      "ĠyayÄ±nladÄ±": 6993,
      "Ġ150": 6994,
      "ĠaÅŁÄ±": 6995,
      "Ġlistesinde": 6996,
      "Ġmatematik": 6997,
      "Ġsul": 6998,
      "ĠRoy": 6999,
      "ĠAfgan": 7000,
      "lop": 7001,
      "ĠNer": 7002,
      "Ġyerleri": 7003,
      "ĠAdasÄ±": 7004,
      "bas": 7005,
      "aÄŁÄ±nÄ±n": 7006,
      "ilme": 7007,
      "ico": 7008,
      "ĠÃĩorum": 7009,
      "Ġordu": 7010,
      "tanÄ±n": 7011,
      "NA": 7012,
      "ĠÄ°lin": 7013,
      "ĠSÄ±rp": 7014,
      "ĠkullanÄ±ldÄ±": 7015,
      "ÅŁe": 7016,
      "Ġbec": 7017,
      "ĠDE": 7018,
      "ĠÄ°t": 7019,
      "Ġpay": 7020,
      "Ġarz": 7021,
      "ĠbÃ¼yÃ¼": 7022,
      "ĠKastamonu": 7023,
      "ulur": 7024,
      "aÄŁÄ±nÄ±": 7025,
      "anÄ±z": 7026,
      "oslav": 7027,
      "ografisi": 7028,
      "ĠBlu": 7029,
      "CI": 7030,
      "Ġ55": 7031,
      "Ġkamera": 7032,
      "field": 7033,
      "ila": 7034,
      "ende": 7035,
      "Ġeklen": 7036,
      "ĠkullanÄ±lmÄ±ÅŁtÄ±r": 7037,
      "ĠÃ§eÅŁ": 7038,
      "Ġolmam": 7039,
      "Ġ1952": 7040,
      "oper": 7041,
      "Ġolanlar": 7042,
      "ĠasÄ±l": 7043,
      "Ġhaberi": 7044,
      "ĠBi": 7045,
      "raÄŁÄ±": 7046,
      "Ġonlara": 7047,
      "iste": 7048,
      "ĠWashington": 7049,
      "Ġep": 7050,
      "Ġtemin": 7051,
      "lÄ±ÄŁÄ±nÄ±n": 7052,
      "ĠKole": 7053,
      "oli": 7054,
      "ĠaralÄ±k": 7055,
      "Ġnitelik": 7056,
      "Bur": 7057,
      "1999": 7058,
      "ĠeriÅŁim": 7059,
      "Ġpetrol": 7060,
      "Ġvide": 7061,
      "abilmesi": 7062,
      "ĠNob": 7063,
      "eÄŁini": 7064,
      "dÃ¼m": 7065,
      "Ġverecek": 7066,
      "ayÄ±cÄ±": 7067,
      "ĠYÃ¶netmen": 7068,
      "ĠÄ°mam": 7069,
      "oug": 7070,
      "Ġsinem": 7071,
      "ĠKatolik": 7072,
      "Ġkampany": 7073,
      "ĠTa": 7074,
      "ĠGerek": 7075,
      "ower": 7076,
      "iyade": 7077,
      "ĠPrens": 7078,
      "ĠSaray": 7079,
      "kaya": 7080,
      "no": 7081,
      "Ġhasar": 7082,
      "ĠgÃ¼zellik": 7083,
      "Ġvakit": 7084,
      "Ġmekt": 7085,
      "ĠDisk": 7086,
      "ĠKariyer": 7087,
      "ĠErmenistan": 7088,
      "liyoruz": 7089,
      "ayolu": 7090,
      "ĠanlayÄ±ÅŁ": 7091,
      "ĠHacÄ±": 7092,
      "ĠrÃ¶": 7093,
      "ning": 7094,
      "uÅŁturucu": 7095,
      "Ġyoksa": 7096,
      "ĠAbdÃ¼l": 7097,
      "ĠyÃ¼zÃ¼nden": 7098,
      "Ġbunlar": 7099,
      "ĠyapÄ±mcÄ±sÄ±": 7100,
      "Ã§Ä±lÄ±k": 7101,
      "Ġmemur": 7102,
      "ĠTRT": 7103,
      "ĠolduklarÄ±": 7104,
      "ĠHÃ¼kÃ¼m": 7105,
      "rip": 7106,
      "ĠForum": 7107,
      "ibe": 7108,
      "Ġ:)": 7109,
      "ĠmÃ¼t": 7110,
      "ĠKahramanmaraÅŁ": 7111,
      "Ġ06": 7112,
      "ĠRock": 7113,
      "ĠsanatÃ§Ä±sÄ±": 7114,
      "ĠmÃ¼ÅŁteriler": 7115,
      "Ġnesil": 7116,
      "mat": 7117,
      "mede": 7118,
      "ĠYÄ±lÄ±n": 7119,
      "Ġonur": 7120,
      "ĠSinan": 7121,
      "Ġistifa": 7122,
      "Ġsavunma": 7123,
      "liliÄŁi": 7124,
      "ĠhastalÄ±ÄŁÄ±": 7125,
      "ĠAil": 7126,
      "ĠteÅŁvik": 7127,
      "ĠPremier": 7128,
      "ĠÅ": 7129,
      "erseniz": 7130,
      "Ġtaleb": 7131,
      "onomik": 7132,
      "ĠÃĩalÄ±ÅŁma": 7133,
      "96": 7134,
      "anti": 7135,
      "Ġyada": 7136,
      "ĠdetaylÄ±": 7137,
      "cer": 7138,
      "Ġ400": 7139,
      "Ġgrubun": 7140,
      "ĠgÃ¶m": 7141,
      "ĠTrump": 7142,
      "Ġyapma": 7143,
      "ĠdolaÅŁ": 7144,
      "slan": 7145,
      "ĠKum": 7146,
      "ĠÃ§ekir": 7147,
      "ĠesnasÄ±nda": 7148,
      "imiÃ§i": 7149,
      "Ġitir": 7150,
      "ĠYerli": 7151,
      "Ġfi": 7152,
      "Ġantik": 7153,
      "ĠÃ§Ä±kÄ±yor": 7154,
      "ĠKilisesi": 7155,
      "ahtar": 7156,
      "ĠFark": 7157,
      "ĠkullandÄ±ÄŁÄ±": 7158,
      "ĠgerÃ§ekleÅŁtirildi": 7159,
      "ĠkÄ±yaf": 7160,
      "fe": 7161,
      "ĠTÃ¼rkÃ§": 7162,
      "ĠOy": 7163,
      "ept": 7164,
      "Ġmisafir": 7165,
      "Ġbirimi": 7166,
      "ĠkÃ¶pek": 7167,
      "ĠÃ§ocuklarÄ±n": 7168,
      "ĠsayfasÄ±": 7169,
      "Ġprotest": 7170,
      "ground": 7171,
      "iÅŁli": 7172,
      "ĠEnter": 7173,
      "ĠdÃ¼zenlendi": 7174,
      "ĠolmaktadÄ±r": 7175,
      "ilenin": 7176,
      "ĠÂ«": 7177,
      "ĠCharles": 7178,
      "ĠbulunmuÅŁtur": 7179,
      "ĠUluslar": 7180,
      "Ñĥ": 7181,
      "ĠAS": 7182,
      "Ġ03": 7183,
      "Ġhasta": 7184,
      "ĠGalaxy": 7185,
      "ĠHÃ¼r": 7186,
      "lamÄ±ÅŁ": 7187,
      "ĠsorunlarÄ±": 7188,
      "BaÅŁ": 7189,
      "asÄ±z": 7190,
      "ĠDestek": 7191,
      "ĠHes": 7192,
      "ĠGaleri": 7193,
      "Ġihtim": 7194,
      "ĠFas": 7195,
      "ĠMardin": 7196,
      "ĠgeÃ§ici": 7197,
      "Ġsarmal": 7198,
      "mac": 7199,
      "ĠhÄ±r": 7200,
      "ĠaralarÄ±nda": 7201,
      "ĠhÃ¼kÃ¼met": 7202,
      "ĠFootball": 7203,
      "Ä±mlÄ±": 7204,
      "ĠÄ°ÅŁleri": 7205,
      "isindeki": 7206,
      "Ay": 7207,
      "ulmuÅŁ": 7208,
      "Ġkulak": 7209,
      "Ġfiziksel": 7210,
      "ĠsÃ¶yl": 7211,
      "sul": 7212,
      "ĠChan": 7213,
      "vanya": 7214,
      "ĠMont": 7215,
      "ĠEdirne": 7216,
      "wa": 7217,
      "Ġkurucusu": 7218,
      "erse": 7219,
      "Ġ75": 7220,
      "ĠAndre": 7221,
      "ĠMezarlÄ±ÄŁÄ±": 7222,
      "Ġmerkezinde": 7223,
      "ĠDÃ¶rt": 7224,
      "ĠTelefon": 7225,
      "Ġgrafik": 7226,
      "ĠniÅŁ": 7227,
      "Ġzinc": 7228,
      "Ġ|}": 7229,
      "ĠAdalarÄ±": 7230,
      "ĠnoktasÄ±": 7231,
      "ĠUniversity": 7232,
      "ĠDig": 7233,
      "ĠProjesi": 7234,
      "bot": 7235,
      "Ġcasino": 7236,
      "ĠyÃ¶nlendir": 7237,
      "Ġbirbirine": 7238,
      "ĠEfendi": 7239,
      "ĠRichard": 7240,
      "Ġbirinin": 7241,
      "Ġedilecek": 7242,
      "ĠgelmiÅŁ": 7243,
      "ĠyaÅŁÄ±nday": 7244,
      "ĠhalkÄ±": 7245,
      "Ġsunan": 7246,
      "hisar": 7247,
      "Ġtoz": 7248,
      "ado": 7249,
      "ĠyumuÅŁ": 7250,
      "ĠFi": 7251,
      "adÄ±klarÄ±": 7252,
      "ĠÃĸlÃ¼mÃ¼": 7253,
      "ĠPl": 7254,
      "Ġtaraftar": 7255,
      "ĠBa": 7256,
      "ĠYatÄ±r": 7257,
      "ĠyapÄ±ldÄ±ÄŁÄ±": 7258,
      "dun": 7259,
      "Ġparlak": 7260,
      "Ġfaydalan": 7261,
      "kun": 7262,
      "ĠSaf": 7263,
      "ĠsaÄŁladÄ±": 7264,
      "ĠKiÅŁisel": 7265,
      "ĠHÄ±z": 7266,
      "ĠTurnuv": 7267,
      "akkabÄ±": 7268,
      "ider": 7269,
      "Ġameliyat": 7270,
      "âĢ¦]": 7271,
      "ĠfamilyasÄ±dÄ±r": 7272,
      "ĠKos": 7273,
      "ĠÃ§alÄ±ÅŁmalarÄ±na": 7274,
      "ASI": 7275,
      "Ġdiyen": 7276,
      "ĠÃ§erÃ§evesinde": 7277,
      "edisi": 7278,
      "ĠDu": 7279,
      "ĠYÃ¼r": 7280,
      "Ġhassas": 7281,
      "ĠedildiÄŁi": 7282,
      "ĠfaktÃ¶r": 7283,
      "ĠIr": 7284,
      "Ġevinde": 7285,
      "Ġ1942": 7286,
      "ĠkiÅŁidir": 7287,
      "ĠDok": 7288,
      "ĠSonra": 7289,
      "Ġ1949": 7290,
      "Ġbilinmektedir": 7291,
      "ĠBodrum": 7292,
      "Ġyor": 7293,
      "ĠET": 7294,
      "Ġbilgilendir": 7295,
      "Ġiktidar": 7296,
      "mesinde": 7297,
      "Ġhoc": 7298,
      "Ä°ÅŁ": 7299,
      "ĠArabistan": 7300,
      "Ã±": 7301,
      "iraat": 7302,
      "ĠNational": 7303,
      "ake": 7304,
      "Ä°stanbul": 7305,
      "ansiyon": 7306,
      "ĠArtÄ±k": 7307,
      "Ġistik": 7308,
      "ĠbÃ¶lÃ¼n": 7309,
      "ĠAfyon": 7310,
      "ĠDub": 7311,
      "ĠYurt": 7312,
      "ĠAmatÃ¶r": 7313,
      "ĠyayÄ±mlandÄ±": 7314,
      "mesinden": 7315,
      "ayol": 7316,
      "Ġvon": 7317,
      "uyorum": 7318,
      "sÃ¼": 7319,
      "Ġakl": 7320,
      "hale": 7321,
      "ĠBM": 7322,
      "ĠNBA": 7323,
      "Ġmezunu": 7324,
      "ĠSuudi": 7325,
      "Ġ....": 7326,
      "Ġtaban": 7327,
      "ĠbazÄ±larÄ±": 7328,
      "luÄŁunu": 7329,
      "ĠDaÄŁÄ±": 7330,
      "ĠCanlÄ±": 7331,
      "ĠÅŀark": 7332,
      "ĠÃľcret": 7333,
      "ria": 7334,
      "ĠÃľniversite": 7335,
      "ĠkÄ±sÄ±m": 7336,
      "Ġtad": 7337,
      "ĠÅŀek": 7338,
      "ĠAslan": 7339,
      "ĠhayatÄ±na": 7340,
      "ĠMis": 7341,
      "elendir": 7342,
      "evk": 7343,
      "ĠtoplantÄ±s": 7344,
      "Ġedilebilir": 7345,
      "Ġgazeteci": 7346,
      "ikol": 7347,
      "ĠEb": 7348,
      "Ġ63": 7349,
      "Ġyaprak": 7350,
      "pt": 7351,
      "Ġkuy": 7352,
      "Ġanlatan": 7353,
      "ĠGazete": 7354,
      "ĠSiyasi": 7355,
      "Ġyitir": 7356,
      "Ġhit": 7357,
      "Ġetki": 7358,
      "Ġyenilik": 7359,
      "ĠbirliÄŁi": 7360,
      "Ġteb": 7361,
      "ĠgeniÅŁlet": 7362,
      "ĠbakÄ±mÄ±ndan": 7363,
      "mo": 7364,
      "ĠKem": 7365,
      "ĠEtkin": 7366,
      "76": 7367,
      "ĠBirlik": 7368,
      "lamaya": 7369,
      "ĠÅŁim": 7370,
      "unuzu": 7371,
      "ĠMid": 7372,
      "ĠUN": 7373,
      "Ġkendilerine": 7374,
      "gazi": 7375,
      "ings": 7376,
      "mm": 7377,
      "orf": 7378,
      "ĠKoz": 7379,
      "ĠDanÄ±ÅŁ": 7380,
      "ĠpiÅŁir": 7381,
      "Ġbronz": 7382,
      "Mar": 7383,
      "onik": 7384,
      "ĠMaÄŁ": 7385,
      "aph": 7386,
      "Ġnoktada": 7387,
      "ĠgÃ¼neyinde": 7388,
      "ansÄ±z": 7389,
      "ĠsaÄŁlÄ±yor": 7390,
      "ĠtakÄ±mÄ±nÄ±n": 7391,
      "Ġsos": 7392,
      "ĠMartin": 7393,
      "Ġunsur": 7394,
      "Ġsayfa": 7395,
      "ĠDevam": 7396,
      "ĠuyarÄ±": 7397,
      "ĠÃ§Ä±kardÄ±": 7398,
      "ĠbÃ¼yÃ¼m": 7399,
      "Ġheyecan": 7400,
      "etiyle": 7401,
      "lemesi": 7402,
      "1996": 7403,
      "Ġmuhab": 7404,
      "ĠsÃ¼rdÃ¼rdÃ¼": 7405,
      "ĠFik": 7406,
      "Ġ1941": 7407,
      "1998": 7408,
      "ulmasÄ±": 7409,
      "olis": 7410,
      "ĠkÄ±yÄ±": 7411,
      "ĠBÄ°R": 7412,
      "ĠsaygÄ±": 7413,
      "ĠgÃ¼Ã§lendir": 7414,
      "Biz": 7415,
      "demi": 7416,
      "Ġlisteleri": 7417,
      "1997": 7418,
      "Ġaram": 7419,
      "Ġkaybol": 7420,
      "ĠKurt": 7421,
      "Ġ1939": 7422,
      "ikal": 7423,
      "eygam": 7424,
      "Ä±nÄ±zda": 7425,
      "ĠKurtul": 7426,
      "eÅŁem": 7427,
      "Ġ[âĢ¦]": 7428,
      "fÄ±r": 7429,
      "ĠSÄ±nÄ±f": 7430,
      "Ġeseri": 7431,
      "ĠÃ¼rÃ¼nÃ¼": 7432,
      "eygamber": 7433,
      "ĠKalkÄ±nma": 7434,
      "ĠyÃ¶netmenliÄŁini": 7435,
      "ÃľRK": 7436,
      "Ġcolspan": 7437,
      "ĠSaÃ§": 7438,
      "ĠCat": 7439,
      "ĠyaptÄ±klarÄ±": 7440,
      "Ġmensup": 7441,
      "Ġhayran": 7442,
      "ĠPsik": 7443,
      "ĠarÅŁiv": 7444,
      "ĠvermiÅŁ": 7445,
      "ĠDÃ¼nyanÄ±n": 7446,
      "ĠOrdusu": 7447,
      "Ã¼lk": 7448,
      "Ġaksiyon": 7449,
      "Ġbekliyor": 7450,
      "Ġdahi": 7451,
      "ĠMuhareb": 7452,
      "ĠiÅŁletim": 7453,
      "ĠmÃ¼dahal": 7454,
      "ahya": 7455,
      "Ġaraz": 7456,
      "antik": 7457,
      "85": 7458,
      "ĠHu": 7459,
      "ĠUÃ§": 7460,
      "Ġbilgiye": 7461,
      "ĠbabasÄ±dÄ±r": 7462,
      "ĠFakÃ¼ltesinde": 7463,
      "ĠendÃ¼str": 7464,
      "ĠtaÅŁÄ±ma": 7465,
      "Ġerdi": 7466,
      "Ġbonus": 7467,
      "Ġmay": 7468,
      "Ä±mÄ±n": 7469,
      "ebiliyor": 7470,
      "86": 7471,
      "ÅŁap": 7472,
      "Ġdey": 7473,
      "ĠGeneral": 7474,
      "ĠElektrik": 7475,
      "iyeli": 7476,
      "Ġnehir": 7477,
      "Ġharit": 7478,
      "ĠtÃ¼rk": 7479,
      "Ġistiyoruz": 7480,
      "ĠYardÄ±mcÄ±": 7481,
      "bÃ¼s": 7482,
      "ĠaÃ§Ä±klamasÄ±": 7483,
      "ĠSeb": 7484,
      "Ġvermeye": 7485,
      "atlarÄ±": 7486,
      "Ġport": 7487,
      "ĠyayÄ±nlar": 7488,
      "Ġkabil": 7489,
      "ĠyardÄ±mcÄ±sÄ±": 7490,
      "Ġlezzet": 7491,
      "Ġanimasyon": 7492,
      "ĠEmin": 7493,
      "Ġ1938": 7494,
      "ĠaÃ§Ä±dan": 7495,
      "Ġyel": 7496,
      "onyalÄ±": 7497,
      "Ġbuldu": 7498,
      "Ġaittir": 7499,
      "Ġkripto": 7500,
      "OÄŀ": 7501,
      "Ġyapabilirsiniz": 7502,
      "Ä±lmasÄ±na": 7503,
      "lemeye": 7504,
      "ĠSom": 7505,
      "edr": 7506,
      "ahisar": 7507,
      "Ġistedik": 7508,
      "ĠdÃ¼ÅŁen": 7509,
      "Ġhizmete": 7510,
      "Ġ1947": 7511,
      "udur": 7512,
      "Ġta": 7513,
      "ĠDom": 7514,
      "ĠrÃ¼t": 7515,
      "ĠyarÄ±ÅŁmasÄ±": 7516,
      "ĠAT": 7517,
      "aport": 7518,
      "Ġdalg": 7519,
      "SD": 7520,
      "ĠiPhone": 7521,
      "malarÄ±nÄ±": 7522,
      "ĠHalil": 7523,
      "Ġdekor": 7524,
      "ps": 7525,
      "mann": 7526,
      "lass": 7527,
      "ĠKÃ¶rf": 7528,
      "ĠHac": 7529,
      "unus": 7530,
      "Ä±lmasÄ±nÄ±": 7531,
      "adis": 7532,
      "ĠbÃ¶lgeler": 7533,
      "ĠMetin": 7534,
      "ĠsÃ¼redir": 7535,
      "emeÄŁi": 7536,
      "lerimizin": 7537,
      "92": 7538,
      "OT": 7539,
      "aklar": 7540,
      "lÃ¼ÄŁÃ¼nÃ¼": 7541,
      "Ġhus": 7542,
      "ĠGi": 7543,
      "Ġsahib": 7544,
      "ĠKupa": 7545,
      "ĠShow": 7546,
      "ĠKrallÄ±ÄŁÄ±": 7547,
      "ĠHazÄ±r": 7548,
      "Ġbulunmak": 7549,
      "abilirler": 7550,
      "Ġeve": 7551,
      "ĠChamp": 7552,
      "ĠDemokratik": 7553,
      "rey": 7554,
      "isiniz": 7555,
      "Ã¼nc": 7556,
      "Ġkorumak": 7557,
      "ĠkomÃ¼ndÃ¼r": 7558,
      "LU": 7559,
      "Ġrefer": 7560,
      "igh": 7561,
      "ĠalÄ±nmasÄ±": 7562,
      "ĠbaÅŁkanlÄ±ÄŁÄ±": 7563,
      "SP": 7564,
      "LARI": 7565,
      "Ġseviye": 7566,
      "ĠFransÄ±zca": 7567,
      "Ġekiplerinden": 7568,
      "gÃ¼l": 7569,
      "alÄ±lar": 7570,
      "lerindeki": 7571,
      "ĠÃ§ocuklarÄ±": 7572,
      "Ġkolayca": 7573,
      "Ġbasketbolcular": 7574,
      "ĠgÃ¶Ã§men": 7575,
      "ular": 7576,
      "Ãĸz": 7577,
      "ĠKomitesi": 7578,
      "ĠKategor": 7579,
      "Ġikinc": 7580,
      "ĠolduÄŁumuz": 7581,
      "1995": 7582,
      "ĠkulÃ¼bÃ¼": 7583,
      "Ġdepol": 7584,
      "yaman": 7585,
      "ĠbaÅŁardÄ±": 7586,
      "parta": 7587,
      "mini": 7588,
      "ĠBolu": 7589,
      "Ġhid": 7590,
      "ĠOkyan": 7591,
      "Ġprens": 7592,
      "mos": 7593,
      "ĠGelen": 7594,
      "Ġ1951": 7595,
      "ĠsÃ¼rdÃ¼": 7596,
      "ĠHollandalÄ±": 7597,
      "ĠSeÃ§im": 7598,
      "ĠÃ§oÄŁunlukla": 7599,
      "Ġbeb": 7600,
      "Ä±ntÄ±lÄ±": 7601,
      "Ã§Ä±n": 7602,
      "iyer": 7603,
      "ĠkolaylaÅŁ": 7604,
      "lit": 7605,
      "Ġpotans": 7606,
      "ĠsÃ¼reÃ§te": 7607,
      "ĠEnerji": 7608,
      "Ġfilmde": 7609,
      "ĠihtiyacÄ±": 7610,
      "stein": 7611,
      "ĠakÄ±l": 7612,
      "itif": 7613,
      "ĠMarmara": 7614,
      "ĠBahis": 7615,
      "dol": 7616,
      "ĠHiÃ§": 7617,
      "ĠkartÄ±": 7618,
      "engiz": 7619,
      "ĠpaylaÅŁÄ±m": 7620,
      "ĠbugÃ¼ne": 7621,
      "ĠÃĸÄŁren": 7622,
      "Ã¼ce": 7623,
      "ÄŁiz": 7624,
      "ĠGÃ¼Ã§": 7625,
      "ĠyapÄ±lmaktadÄ±r": 7626,
      "ĠtaÅŁÄ±t": 7627,
      "Ġstil": 7628,
      "Ġkus": 7629,
      "ĠÃ§at": 7630,
      "ĠiÅŁbirliÄŁi": 7631,
      "ĠAÄŁÄ±r": 7632,
      "ĠMahalle": 7633,
      "ĠYapÄ±": 7634,
      "Ã£o": 7635,
      "leriniz": 7636,
      "Ġbilinmeyen": 7637,
      "ĠEvli": 7638,
      "ĠPress": 7639,
      "aborat": 7640,
      "emedi": 7641,
      "oÄŁol": 7642,
      "Ġzamanlar": 7643,
      "Ã§Ä±lar": 7644,
      "ĠEÄŁit": 7645,
      "Ġrekabet": 7646,
      "ĠJandarma": 7647,
      "ĠimkanÄ±": 7648,
      "ĠgerÃ§ekleÅŁti": 7649,
      "ĠdalÄ±nda": 7650,
      "gaz": 7651,
      "Ä±Ã§ak": 7652,
      "elerek": 7653,
      "Ġkimyasal": 7654,
      "ĠcezasÄ±": 7655,
      "ĠgÃ¶rÃ¼ldÃ¼": 7656,
      "alli": 7657,
      "ĠBund": 7658,
      "ĠTÃľ": 7659,
      "Ġyerler": 7660,
      "ĠÅŁÄ±k": 7661,
      "inen": 7662,
      "ĠModern": 7663,
      "Ġuzan": 7664,
      "ĠAmerikalÄ±lar": 7665,
      "ĠvatandaÅŁlar": 7666,
      "Ġbayrak": 7667,
      "ĠNedir": 7668,
      "ĠiÅŁÃ§i": 7669,
      "ĠdÃ¶nemin": 7670,
      "Ġismini": 7671,
      "Ã¶m": 7672,
      "amuk": 7673,
      "Ġmus": 7674,
      "Ġstadyum": 7675,
      "ĠMÃ¼cadel": 7676,
      "ilerde": 7677,
      "ĠTunus": 7678,
      "ĠIÅŁÄ±k": 7679,
      "lanabilir": 7680,
      "ĠÃĩiÃ§ek": 7681,
      "ĠÃ§alÄ±ÅŁÄ±r": 7682,
      "Ġkarakterler": 7683,
      "Ġdakikada": 7684,
      "ĠYerelnet": 7685,
      "ĠgÃ¼ndeme": 7686,
      "Ð²": 7687,
      "ĠKanun": 7688,
      "ĠyaÄŁÄ±ÅŁ": 7689,
      "ĠSy": 7690,
      "ĠKÃ¶pr": 7691,
      "Ġkenar": 7692,
      "ĠÃľnlÃ¼": 7693,
      "Ġsorumluluk": 7694,
      "Ġsunuyor": 7695,
      "batÄ±": 7696,
      "liyat": 7697,
      "Ġgezeg": 7698,
      "Ġfrom": 7699,
      "Ã¼lmesi": 7700,
      "Ġistek": 7701,
      "Ġkimse": 7702,
      "Ġasit": 7703,
      "Ġdurumlarda": 7704,
      "ĠToplantÄ±": 7705,
      "Ġboyu": 7706,
      "DÄ°": 7707,
      "ĠyaÅŁlÄ±": 7708,
      "portaj": 7709,
      "ĠbÃ¶lgeye": 7710,
      "ĠKomutanlÄ±ÄŁÄ±": 7711,
      "Ã¼kleer": 7712,
      "CO": 7713,
      "Ġanime": 7714,
      "87": 7715,
      "Ġeb": 7716,
      "ilmez": 7717,
      "ĠtÃ¼rleri": 7718,
      "Ä°l": 7719,
      "Ġtopluluk": 7720,
      "ĠOnline": 7721,
      "dr": 7722,
      "ls": 7723,
      "Ġkonak": 7724,
      "Ġfestival": 7725,
      "sÃ¶z": 7726,
      "ĠDam": 7727,
      "ĠÃ§ekim": 7728,
      "Ġburaya": 7729,
      "ĠOÄŁuz": 7730,
      "eceÄŁim": 7731,
      "ĠmarkalarÄ±": 7732,
      "ero": 7733,
      "Ġte": 7734,
      "ĠHABER": 7735,
      "ĠgerÃ§ekleÅŁtirdi": 7736,
      "Ġideal": 7737,
      "gÄ±t": 7738,
      "ette": 7739,
      "Ġanti": 7740,
      "BT": 7741,
      "Ġtap": 7742,
      "tÄ±ktan": 7743,
      "ĠBaÅŁarÄ±larÄ±": 7744,
      "ĠEp": 7745,
      "ĠgÃ¶steriyor": 7746,
      "ĠkarÅŁÄ±lan": 7747,
      "Ġsanayi": 7748,
      "ĠBakanlÄ±": 7749,
      "ĠKredi": 7750,
      "ĠkiÅŁiden": 7751,
      "ï¿": 7752,
      "ĠBAÅŀ": 7753,
      "ĠDay": 7754,
      "ĠHab": 7755,
      "mamak": 7756,
      "illiÄŁi": 7757,
      "LAN": 7758,
      "ĠvermiÅŁtir": 7759,
      "idth": 7760,
      "chester": 7761,
      "ĠÄ°ÅŁlem": 7762,
      "ĠbunlarÄ±": 7763,
      "ĠHil": 7764,
      "ĠRef": 7765,
      "ĠNov": 7766,
      "Ġcisimleri": 7767,
      "Ġmavi": 7768,
      "Ġyeter": 7769,
      "Ġsebebi": 7770,
      "Äį": 7771,
      "ï¿½": 7772,
      "losu": 7773,
      "akat": 7774,
      "hen": 7775,
      "Ġrezerv": 7776,
      "ĠLee": 7777,
      "app": 7778,
      "ĠyaralandÄ±": 7779,
      "ĠtasarÄ±mÄ±": 7780,
      "Ġprofili": 7781,
      "Ġdarbe": 7782,
      "Ġbirini": 7783,
      "ĠReh": 7784,
      "uyordu": 7785,
      "ĠGenellikle": 7786,
      "MS": 7787,
      "ĠBig": 7788,
      "ĠÅŁiÅŁ": 7789,
      "Ã§eÄŁi": 7790,
      "ĠPGC": 7791,
      "ĠAnne": 7792,
      "daroÄŁlu": 7793,
      "ĠYaklaÅŁÄ±k": 7794,
      "ĠHotel": 7795,
      "ĠMadalya": 7796,
      "ĠTokat": 7797,
      "ĠÅŁehridir": 7798,
      "ĠKanunu": 7799,
      "ĠkatkÄ±da": 7800,
      "avuÅŁ": 7801,
      "ĠkarÅŁÄ±lÄ±": 7802,
      "ĠÃĩetin": 7803,
      "leyin": 7804,
      "ĠThomas": 7805,
      "ĠbaÅŁlÄ±yor": 7806,
      "Ġfilminde": 7807,
      "Ġonlar": 7808,
      "ĠSez": 7809,
      "ongul": 7810,
      "ĠYÃ¶netimi": 7811,
      "ĠYapÄ±m": 7812,
      "ĠStudi": 7813,
      "ĠVik": 7814,
      "ĠseÃ§ilmiÅŁtir": 7815,
      "Ġfer": 7816,
      "Ġpartiler": 7817,
      "asÄ±n": 7818,
      "ĠCas": 7819,
      "Ġtarihlerinde": 7820,
      "ĠmaÃ§larÄ±": 7821,
      "Ġforvet": 7822,
      "ĠðŁ": 7823,
      "oker": 7824,
      "imizden": 7825,
      "obi": 7826,
      "apÄ±": 7827,
      "ĠEngel": 7828,
      "ĠKaymakam": 7829,
      "ĠGÃĸ": 7830,
      "Ġmaddi": 7831,
      "biy": 7832,
      "ĠBerk": 7833,
      "ĠFETÃĸ": 7834,
      "Ã¼ye": 7835,
      "ĠInstagram": 7836,
      "ĠMusic": 7837,
      "Ġherkesin": 7838,
      "ool": 7839,
      "Ġyakalan": 7840,
      "ĠdÃ¼zenleme": 7841,
      "alandÄ±r": 7842,
      "ĠkarÅŁÄ±laÅŁtÄ±r": 7843,
      "ĠArtvin": 7844,
      "allenin": 7845,
      "kale": 7846,
      "ĠAg": 7847,
      "ĠCey": 7848,
      "ĠJun": 7849,
      "Ġdom": 7850,
      "ute": 7851,
      "ĠÄ°lÃ§esi": 7852,
      "Ġmetrek": 7853,
      "ĠaskerÃ®": 7854,
      "ĠListesi": 7855,
      "ĠBilgisayar": 7856,
      "PS": 7857,
      "ism": 7858,
      "urta": 7859,
      "ozgat": 7860,
      "ĠbÄ±raktÄ±": 7861,
      "ĠyÃ¶ntemi": 7862,
      "steri": 7863,
      "ĠaltÄ±ndaki": 7864,
      "Ġmaddesi": 7865,
      "ĠBaba": 7866,
      "ĠEmek": 7867,
      "ĠFri": 7868,
      "ugoslav": 7869,
      "ĠbaÄŁÄ±ÅŁ": 7870,
      "Ġzih": 7871,
      "ebe": 7872,
      "ĠÃĩeÅŁit": 7873,
      "Ġkapan": 7874,
      "ĠÅŀehit": 7875,
      "ĠBaÅŁar": 7876,
      "ĠSosyalist": 7877,
      "onun": 7878,
      "ĠKomÃ¼n": 7879,
      "ĠGenÃ§ler": 7880,
      "Ġmikro": 7881,
      "Gen": 7882,
      "ĠBundan": 7883,
      "Ġeleme": 7884,
      "Ġkendilerini": 7885,
      "Ġtemsilcisi": 7886,
      "ĠTasarÄ±m": 7887,
      "ĠDuy": 7888,
      "Ġfilmidir": 7889,
      "mektey": 7890,
      "ĠsÃ¼per": 7891,
      "Ġvefat": 7892,
      "Ġ1936": 7893,
      "ĠkaÃ§ak": 7894,
      "ĠistediÄŁi": 7895,
      "gresi": 7896,
      "LERÄ°": 7897,
      "ĠKi": 7898,
      "ĠÃ§Ã¶k": 7899,
      "ĠTakÄ±mÄ±": 7900,
      "Ġbekleniyor": 7901,
      "ĠistiyorsanÄ±z": 7902,
      "Ġbirer": 7903,
      "ition": 7904,
      "sav": 7905,
      "ĠmÃ¼r": 7906,
      "ĠaynalÄ±": 7907,
      "Ġindirim": 7908,
      "emeyen": 7909,
      "Ġefsan": 7910,
      "onguldak": 7911,
      "77": 7912,
      "ÄŁinin": 7913,
      "ĠKn": 7914,
      "Ġortamda": 7915,
      "ĠDemokrat": 7916,
      "Ġmel": 7917,
      "Ġyatak": 7918,
      "ĠLan": 7919,
      "chel": 7920,
      "iyana": 7921,
      "Ä±nÄ±zÄ±n": 7922,
      "ĠBalkan": 7923,
      "ĠÃ¶lÃ¼": 7924,
      "Ġnamaz": 7925,
      "ĠcÃ¼m": 7926,
      "Ġalanlarda": 7927,
      "ĠUzman": 7928,
      "ĠArnavutluk": 7929,
      "astÄ±r": 7930,
      "ĠResmÃ®": 7931,
      "Ġbelirtilen": 7932,
      "refektÃ¶r": 7933,
      "Ã¼mrÃ¼k": 7934,
      "ĠPir": 7935,
      "giller": 7936,
      "ĠKÄ±rk": 7937,
      "Ġengelli": 7938,
      "ĠÃ¼s": 7939,
      "ĠGiz": 7940,
      "omp": 7941,
      "Ġolmay": 7942,
      "ĠKazan": 7943,
      "onsor": 7944,
      "Ġmiktarda": 7945,
      "ĠyÃ¼rÃ¼yÃ¼ÅŁ": 7946,
      "ĠTurg": 7947,
      "Ã¶ly": 7948,
      "bette": 7949,
      "mamaktadÄ±r": 7950,
      "tifik": 7951,
      "ĠAhmed": 7952,
      "Yeni": 7953,
      "align": 7954,
      "ilmesine": 7955,
      "ĠtamamÄ±": 7956,
      "ĠÅŁirketin": 7957,
      "Ġmini": 7958,
      "ĠÃ§am": 7959,
      "ĠStev": 7960,
      "ĠBost": 7961,
      "ĠKAR": 7962,
      "ĠAD": 7963,
      "ĠBre": 7964,
      "tihar": 7965,
      "ĠUlu": 7966,
      "ĠkarÅŁÄ±n": 7967,
      "Ġarke": 7968,
      "Ġgiydi": 7969,
      "Ġtedavisi": 7970,
      "emiÅŁtir": 7971,
      "ĠHon": 7972,
      "Ġalkol": 7973,
      "ĠyazÄ±lmÄ±ÅŁ": 7974,
      "Ġsinyal": 7975,
      "ĠfirmasÄ±": 7976,
      ")\"": 7977,
      "abalÄ±k": 7978,
      "ĠyarÄ±ÅŁmacÄ±": 7979,
      "chi": 7980,
      "Ġbaraj": 7981,
      "ĠOnun": 7982,
      "ĠsÄ±nÄ±flandÄ±r": 7983,
      "ĠSad": 7984,
      "lidir": 7985,
      "Ġadr": 7986,
      "ĠAtlet": 7987,
      "ĠMoÄŁol": 7988,
      "Ġgerilim": 7989,
      "ĠÃĸzbek": 7990,
      "ĠTemel": 7991,
      "ĠÄ°nÅŁaat": 7992,
      "ĠgÃ¶reve": 7993,
      "ĠÃ¶rgÃ¼tÃ¼": 7994,
      "ĠmÃ¼dahale": 7995,
      "ĠrÃ¼tb": 7996,
      "Hay": 7997,
      "Ġdenk": 7998,
      "Ġsunulan": 7999,
      "ruk": 8000,
      "ĠStan": 8001,
      "ĠYo": 8002,
      "Ġdizisinde": 8003,
      "Ġdokuz": 8004,
      "Pro": 8005,
      "ÅŁak": 8006,
      "ĠkÃ¢": 8007,
      "ĠFilmin": 8008,
      "Ġgazete": 8009,
      "ĠBosna": 8010,
      "lasÄ±": 8011,
      "iral": 8012,
      "ĠDenizi": 8013,
      "ĠmaÄŁlup": 8014,
      "ĠSelÃ§uk": 8015,
      "ĠKud": 8016,
      "ĠÄ°b": 8017,
      "ĠÃ¢": 8018,
      "Ġiklim": 8019,
      "ĠyayÄ±nlan": 8020,
      "ĠiliÅŁki": 8021,
      "ĠaraÃ§larÄ±": 8022,
      "ĠkomÅŁu": 8023,
      "tÄ±klarÄ±": 8024,
      "1992": 8025,
      "Ġhatt": 8026,
      "lÃ¼ÄŁÃ¼nde": 8027,
      "65": 8028,
      "ĠToplum": 8029,
      "urken": 8030,
      "ĠiÅŁler": 8031,
      "ĠzamanÄ±nda": 8032,
      "Ġbitirdi": 8033,
      "ĠSistemi": 8034,
      "esliga": 8035,
      "AA": 8036,
      "dy": 8037,
      "Ġkargo": 8038,
      "ĠAltÄ±": 8039,
      "sion": 8040,
      "lerimize": 8041,
      "ĠSoci": 8042,
      "alat": 8043,
      "ĠRol": 8044,
      "ĠAnton": 8045,
      "ream": 8046,
      "ĠyaÅŁamÄ±nÄ±": 8047,
      "Ġolaylar": 8048,
      "background": 8049,
      "ĠsÃ¼rÃ¼cÃ¼": 8050,
      "Ġmaruz": 8051,
      "ĠyaÅŁat": 8052,
      "Ġwebs": 8053,
      "ĠsektÃ¶rÃ¼nde": 8054,
      "ĠKartal": 8055,
      "Ġsek": 8056,
      "uro": 8057,
      "ĠLo": 8058,
      "lÃ¼ÄŁe": 8059,
      "Ġacil": 8060,
      "ĠkullanÄ±larak": 8061,
      "Ä±ldÄ±ÄŁÄ±nda": 8062,
      "Ġevlilik": 8063,
      "Ġgenelde": 8064,
      "ĠÄ±ÅŁÄ±": 8065,
      "eliler": 8066,
      "Ġpu": 8067,
      "Ġbildirdi": 8068,
      "Ġbirbirinden": 8069,
      "TE": 8070,
      "ilmesini": 8071,
      "ason": 8072,
      "ĠÃĸte": 8073,
      "Ġbelirlenen": 8074,
      "ĠbaÅŁlandÄ±": 8075,
      "ĠlÃ¼tfen": 8076,
      "ĠBayrak": 8077,
      "ÙĪ": 8078,
      "ruf": 8079,
      "Ġerkekler": 8080,
      "ografik": 8081,
      "ĠKÄ±rmÄ±zÄ±": 8082,
      "ĠvarlÄ±k": 8083,
      "Ġhalka": 8084,
      "Ġofis": 8085,
      "guay": 8086,
      "88": 8087,
      "ĠaylarÄ±nda": 8088,
      "ĠÄ°ncel": 8089,
      "ĠakÄ±ÅŁ": 8090,
      "ĠStadyumu": 8091,
      "ÉĻ": 8092,
      "Ġtren": 8093,
      "ĠSP": 8094,
      "ĠKazakistan": 8095,
      "ĠSC": 8096,
      "ĠSelim": 8097,
      "1993": 8098,
      "ĠVoleybol": 8099,
      "Ä±bbi": 8100,
      "ĠNobel": 8101,
      "ĠBaz": 8102,
      "ĠÃ§Ä±ktÄ±ÄŁÄ±": 8103,
      "Ġalanlar": 8104,
      "ĠZor": 8105,
      "ĠyÃ¶netmeni": 8106,
      "ĠgeliÅŁmeler": 8107,
      "ĠmaÄŁdur": 8108,
      "Ġsef": 8109,
      "ĠdoÄŁa": 8110,
      "ĠyakÄ±ndan": 8111,
      "ĠÃ§ekildi": 8112,
      "tuÄŁ": 8113,
      "Ã§ilik": 8114,
      "Ġtaz": 8115,
      "ĠHome": 8116,
      "Ġprote": 8117,
      "Ġsinir": 8118,
      "ĠKorum": 8119,
      "ĠkÄ±smÄ±nda": 8120,
      "IS": 8121,
      "ĠprofesÃ¶r": 8122,
      "Ġ1934": 8123,
      "Ġmeydan": 8124,
      "ĠKÄ±rÄ±m": 8125,
      "uri": 8126,
      "ĠYemek": 8127,
      "ĠPerson": 8128,
      "ĠRep": 8129,
      "ĠÃ¶zen": 8130,
      "ĠulaÅŁtÄ±r": 8131,
      "emize": 8132,
      "tures": 8133,
      "ĠstatÃ¼sÃ¼": 8134,
      "fan": 8135,
      "ĠÄ°ndir": 8136,
      "ĠmaaÅŁ": 8137,
      "urdu": 8138,
      "Ġeserleri": 8139,
      "Ġyiyecek": 8140,
      "Ä±ÄŁ": 8141,
      "ĠBart": 8142,
      "ĠYukarÄ±": 8143,
      "Ġalak": 8144,
      "ĠsÃ¼rÃ¼c": 8145,
      "Ġ1925": 8146,
      "Ġklip": 8147,
      "ĠPlatform": 8148,
      "ĠseÃ§imi": 8149,
      "Ġob": 8150,
      "ĠAÄŁr": 8151,
      "1994": 8152,
      "Ġbeklent": 8153,
      "TÄ°": 8154,
      "Ġadresi": 8155,
      "ĠkatÄ±": 8156,
      "ĠolduklarÄ±nÄ±": 8157,
      "ĠkulÃ¼plerinde": 8158,
      "ĠsoruÅŁturma": 8159,
      "ĠBÃ¼lent": 8160,
      "ĠTro": 8161,
      "Le": 8162,
      "ement": 8163,
      "itz": 8164,
      "ĠRay": 8165,
      "Ġbakan": 8166,
      "Ã§ilerin": 8167,
      "bahar": 8168,
      "ĠKonser": 8169,
      "Ġzorunlu": 8170,
      "ĠdÃ¼k": 8171,
      "ĠPrix": 8172,
      "ĠPhil": 8173,
      "ĠrÃ¼z": 8174,
      "ayÄ±t": 8175,
      "Ã¢t": 8176,
      "Ġtutar": 8177,
      "his": 8178,
      "Ġelb": 8179,
      "Ġmodeller": 8180,
      "ĠsaÄŁlayacak": 8181,
      "ĠInter": 8182,
      "ĠanlattÄ±": 8183,
      "ĠhalkÄ±n": 8184,
      "Ġkutusu": 8185,
      "Ġetnik": 8186,
      "ĠÅŀim": 8187,
      "Ġiade": 8188,
      "Ġkarbon": 8189,
      "Ġevlendi": 8190,
      "ĠBilgiler": 8191,
      "Ġburadan": 8192,
      "ĠgÃ¶nderildi": 8193,
      "ĠyaÄŁmur": 8194,
      "Ġumut": 8195,
      "ĠBayramÄ±": 8196,
      "ĠKendi": 8197,
      "imari": 8198,
      "ĠDek": 8199,
      "ĠNa": 8200,
      "Ġkaza": 8201,
      "ĠtanÄ±nan": 8202,
      "ĠCezay": 8203,
      "Ġhalen": 8204,
      "ĠeÅŁlik": 8205,
      "Ġ120": 8206,
      "je": 8207,
      "etti": 8208,
      "Ġdeng": 8209,
      "ĠTanrÄ±": 8210,
      "kest": 8211,
      "ĠRev": 8212,
      "Ġdenet": 8213,
      "Ġ1933": 8214,
      "ĠKÃ¼tahya": 8215,
      "Ġinf": 8216,
      "isidir": 8217,
      "ĠPolonyalÄ±": 8218,
      "Ġdikkate": 8219,
      "ĠHÄ±rvatistan": 8220,
      "Ã¼rt": 8221,
      "Ġartan": 8222,
      "ĠsÄ±vÄ±": 8223,
      "haba": 8224,
      "ĠÄ°L": 8225,
      "Ġcaz": 8226,
      "ebilen": 8227,
      "Ġbulmak": 8228,
      "ĠMilliyet": 8229,
      "ĠsÃ¼recinde": 8230,
      "ĠyarÄ±n": 8231,
      "luluÄŁ": 8232,
      "YOR": 8233,
      "idge": 8234,
      "Ġakr": 8235,
      "ĠTemiz": 8236,
      "ĠHareket": 8237,
      "ĠbaÅŁarÄ±sÄ±z": 8238,
      "ty": 8239,
      "ĠseÃ§ilen": 8240,
      "ĠgÃ¶rÃ¼ÅŁmeler": 8241,
      "ĠtarafÄ±nda": 8242,
      "ĠZiraat": 8243,
      "ĠuzaklÄ±kta": 8244,
      "ĠProgramÄ±": 8245,
      "iÄĩ": 8246,
      "ĠOx": 8247,
      "ĠgÃ¶v": 8248,
      "Ġmetin": 8249,
      "ĠdayalÄ±": 8250,
      "ĠÃ§or": 8251,
      "Ġsaatlerinde": 8252,
      "ĠsÄ±fÄ±r": 8253,
      "ĠCumhurbaÅŁkanlÄ±ÄŁÄ±": 8254,
      "incan": 8255,
      "ĠHist": 8256,
      "amanÄ±n": 8257,
      "Ġ58": 8258,
      "ĠduruÅŁ": 8259,
      "emizi": 8260,
      "Ġtoplumsal": 8261,
      "ĠCamp": 8262,
      "ĠsÃ¼reli": 8263,
      "ĠAteÅŁ": 8264,
      "Ġhayatta": 8265,
      "adaÄŁ": 8266,
      "Ġ57": 8267,
      "ĠyaÅŁamÄ±": 8268,
      "ĠyaÅŁamak": 8269,
      "arik": 8270,
      ":#": 8271,
      "uvarÄ±": 8272,
      "Ġcinayet": 8273,
      "ĠTen": 8274,
      "ĠGram": 8275,
      "Ġtarihine": 8276,
      "Ġelinde": 8277,
      "ĠÄ°dari": 8278,
      "ĠHanedanÄ±": 8279,
      "zen": 8280,
      "ĠolacaÄŁÄ±": 8281,
      "Ã¼lasyon": 8282,
      "ĠPolitik": 8283,
      "ĠÃ§atÄ±ÅŁmalar": 8284,
      "ĠFrancis": 8285,
      "ĠAfganistan": 8286,
      "Ġmol": 8287,
      "Ġyolculu": 8288,
      "idea": 8289,
      "ĠgeliÅŁmiÅŁ": 8290,
      "ĠBabasÄ±": 8291,
      "ĠInternational": 8292,
      "ĠBebek": 8293,
      "áĥĲáĥ": 8294,
      "ĠGez": 8295,
      "ĠYozgat": 8296,
      "ĠKars": 8297,
      "ĠÃ¶ncelikle": 8298,
      "adde": 8299,
      "ĠFaz": 8300,
      "Ġvererek": 8301,
      "ĠAnal": 8302,
      "Ġ1935": 8303,
      "ĠHanÄ±m": 8304,
      "ĠRey": 8305,
      "Ġistihdam": 8306,
      "ÅŁi": 8307,
      "Ġyalan": 8308,
      "ĠNij": 8309,
      "Ġalana": 8310,
      "lasyon": 8311,
      "abi": 8312,
      "ĠkÃ¶yÃ¼n": 8313,
      "ĠyansÄ±t": 8314,
      "Ġmuhaf": 8315,
      "ĠNiÅŁanÄ±": 8316,
      "ĠMekt": 8317,
      "ĠReg": 8318,
      "ĠArda": 8319,
      "Ġoyunlar": 8320,
      "ĠÃ¼stÃ¼": 8321,
      "ugh": 8322,
      "ĠYÃ¼ksel": 8323,
      "ĠChampion": 8324,
      "ĠkolaylaÅŁtÄ±r": 8325,
      "Ġves": 8326,
      "ĠNil": 8327,
      "Ġ42": 8328,
      "ĠdÃ¼zeyde": 8329,
      "ges": 8330,
      "tesi": 8331,
      "ĠPakistan": 8332,
      "Ġisyan": 8333,
      "Ġ64": 8334,
      "ĠÅŀiir": 8335,
      "ĠEntertain": 8336,
      "500": 8337,
      "ĠBes": 8338,
      "ĠyaralÄ±": 8339,
      "Ġbilgisi": 8340,
      "Ã¡n": 8341,
      "ĠbaÅŁlayacak": 8342,
      "ĠYavuz": 8343,
      "ĠkalÄ±ntÄ±": 8344,
      "ĠVictor": 8345,
      "feder": 8346,
      "ayÄ±k": 8347,
      "Ġpap": 8348,
      "ĠYugoslav": 8349,
      "ĠRÃ¼yada": 8350,
      "gia": 8351,
      "ĠkonuÅŁma": 8352,
      "diye": 8353,
      "gur": 8354,
      "iyiz": 8355,
      "ilerinden": 8356,
      "ĠVad": 8357,
      "OP": 8358,
      "adÄ±n": 8359,
      "Ġesk": 8360,
      "Ġmevki": 8361,
      "ĠHDP": 8362,
      "ĠAfrikalÄ±": 8363,
      "Ġbecer": 8364,
      "imini": 8365,
      "Ġparmak": 8366,
      "Ġhakem": 8367,
      "Ġeserler": 8368,
      "ĠoranÄ±nda": 8369,
      "EZ": 8370,
      "ullarÄ±": 8371,
      "Ã¼rken": 8372,
      "ĠkÃ¶yÃ¼nde": 8373,
      "ĠGit": 8374,
      "Ġzek": 8375,
      "ĠfarklÄ±lÄ±k": 8376,
      "ĠsÃ¶zleri": 8377,
      "ĠÃ¼stÃ¼nde": 8378,
      "ĠBurs": 8379,
      "ĠÅŁahÄ±s": 8380,
      "ĠbilinÃ§": 8381,
      "ĠdÃ¶nÃ¼ÅŁÃ¼m": 8382,
      "Ġaksine": 8383,
      "ĠAla": 8384,
      "ĠSing": 8385,
      "Ġ39": 8386,
      "ĠÃľs": 8387,
      "cus": 8388,
      "eleriyle": 8389,
      "Ġmeyve": 8390,
      "azz": 8391,
      "ĠgÃ¶sterildi": 8392,
      "Ġtemas": 8393,
      "ĠChic": 8394,
      "lÃ¼ÄŁÃ¼ne": 8395,
      "duc": 8396,
      "ĠortasÄ±nda": 8397,
      "ĠYaÅŁar": 8398,
      "ĠtÃ¼f": 8399,
      "opter": 8400,
      "ĠbaÄŁlÄ±dÄ±r": 8401,
      "ĠaltfamilyasÄ±na": 8402,
      "ĠbÃ¶lgenin": 8403,
      "enizi": 8404,
      "ĠÃ¶ÄŁrenildi": 8405,
      "Ġsergilen": 8406,
      "gari": 8407,
      "ric": 8408,
      "Ġbelgesel": 8409,
      "Â°": 8410,
      "Ùħ": 8411,
      "ĠPil": 8412,
      "ĠRenk": 8413,
      "ĠLet": 8414,
      "ĠbaÅŁlÄ±klÄ±": 8415,
      "ĠBaÅŁak": 8416,
      "ĠbakanlarÄ±": 8417,
      "Ġfinale": 8418,
      "Ġrej": 8419,
      "rad": 8420,
      "Ġdisk": 8421,
      "ĠYouT": 8422,
      "Ġvek": 8423,
      "Ah": 8424,
      "Ġ$": 8425,
      "Ġzevk": 8426,
      "ĠViyana": 8427,
      "ĠoluÅŁturmak": 8428,
      "ĠMadal": 8429,
      "ĠBillboard": 8430,
      "ĠâĤ": 8431,
      "ĠBundesliga": 8432,
      "ear": 8433,
      "gn": 8434,
      "diÄŁini": 8435,
      "Ġyaralan": 8436,
      "ĠromanlarÄ±": 8437,
      "ĠÄ°sveÃ§li": 8438,
      "oid": 8439,
      "sis": 8440,
      "Ã¼man": 8441,
      "ĠÃ§alÄ±ÅŁmak": 8442,
      "madÄ±ÄŁÄ±nÄ±": 8443,
      "ĠArkadaÅŁ": 8444,
      "mes": 8445,
      "ĠyaÅŁay": 8446,
      "Ġteker": 8447,
      "ĠLigue": 8448,
      "ĠEntertainment": 8449,
      "Ġvs": 8450,
      "ispor": 8451,
      "ĠaktÃ¶r": 8452,
      "ĠyayÄ±nlanmÄ±ÅŁtÄ±r": 8453,
      "ĠsunmaktadÄ±r": 8454,
      "ĠdÃ¼ÅŁÃ¼nÃ¼yorum": 8455,
      "ĠiÅŁte": 8456,
      "ĠuyuÅŁturucu": 8457,
      "67": 8458,
      "ĠÄ±sÄ±": 8459,
      "Ġfatur": 8460,
      "ĠJac": 8461,
      "Ġtalim": 8462,
      "ĠLife": 8463,
      "diklerini": 8464,
      "ĠPrim": 8465,
      "ĠuygulamalarÄ±": 8466,
      "ĠtÄ±klayÄ±n": 8467,
      "ĠSerie": 8468,
      "Ġailenin": 8469,
      "LA": 8470,
      "ĠarasÄ±ndan": 8471,
      "Ġprotokol": 8472,
      "ĠÃĸrgÃ¼tÃ¼": 8473,
      "Ġinc": 8474,
      "Ġverimli": 8475,
      "Ġkalite": 8476,
      "ĠkalÄ±cÄ±": 8477,
      "ĠgeÃ§irdiÄŁi": 8478,
      "84": 8479,
      "Ãª": 8480,
      "Ã¼ks": 8481,
      "ĠzamanÄ±": 8482,
      "ĠYabancÄ±": 8483,
      "Ġekonomi": 8484,
      "Ġtemizlik": 8485,
      "ies": 8486,
      "ĠtÃ¼y": 8487,
      "ĠNeden": 8488,
      "ĠZonguldak": 8489,
      "ĠProt": 8490,
      "ex": 8491,
      "ĠDizi": 8492,
      "ĠÃ¶nÃ¼mÃ¼zdeki": 8493,
      "Ġmalzeme": 8494,
      "ĠÃĸnceki": 8495,
      "lobal": 8496,
      "Ġ1919": 8497,
      "ĠLuc": 8498,
      "Ä±ldÄ±ÄŁÄ±nÄ±": 8499,
      "ĠBirleÅŁmiÅŁ": 8500,
      "Ġ1918": 8501,
      "Ġpratik": 8502,
      "mr": 8503,
      "ÅĤ": 8504,
      "Ä±nan": 8505,
      "ĠStep": 8506,
      "Ġfen": 8507,
      "ĠIt": 8508,
      "Alman": 8509,
      "Ġsenin": 8510,
      "ĠyanÄ±na": 8511,
      "ĠalÄ±narak": 8512,
      "maÅŁÄ±k": 8513,
      "irt": 8514,
      "abildi": 8515,
      "ĠKonuyla": 8516,
      "ÃľK": 8517,
      "avy": 8518,
      "Ġettiler": 8519,
      "dÃ¼ÄŁ": 8520,
      "Ġbanka": 8521,
      "con": 8522,
      "Ã«": 8523,
      "ĠKarar": 8524,
      "Ġhepsi": 8525,
      "Ġbireysel": 8526,
      "Ġaran": 8527,
      "ĠkalÄ±r": 8528,
      "ĠilginÃ§": 8529,
      "Ġsezonunun": 8530,
      "Ġailesinin": 8531,
      "ĠAdÄ±yaman": 8532,
      "Ġskor": 8533,
      "Ġvan": 8534,
      "Ġnetic": 8535,
      "Ġyerlerde": 8536,
      "Ġtarihinden": 8537,
      "Ä°YE": 8538,
      "ĠBritanyalÄ±": 8539,
      "ĠKafk": 8540,
      "ĠgerekÃ§esiyle": 8541,
      "daÄŁÄ±": 8542,
      "ĠBad": 8543,
      "ĠolmayÄ±": 8544,
      "sÄ±zlÄ±k": 8545,
      "ĠseÃ§enekleri": 8546,
      "ĠHÃ¼kÃ»met": 8547,
      "Ġsend": 8548,
      "Ä±kÃ¶y": 8549,
      "ĠOrtak": 8550,
      "ĠÃ§ekici": 8551,
      "Ġkapasit": 8552,
      "ĠdÃ¼zenlediÄŁi": 8553,
      "ĠtanÄ±tÄ±m": 8554,
      "ĠetkileÅŁ": 8555,
      "ĠFizik": 8556,
      "Ġuyumlu": 8557,
      "ĠgÃ¶revlendir": 8558,
      "mamÄ±ÅŁtÄ±r": 8559,
      "ĠÃ§aÄŁrÄ±": 8560,
      "ĠRam": 8561,
      "ĠAlmanca": 8562,
      "Ġdemektir": 8563,
      "ĠAC": 8564,
      "tÄ±ÄŁÄ±mÄ±z": 8565,
      "Ġwidth": 8566,
      "ship": 8567,
      "ĠAvustral": 8568,
      "beyaz": 8569,
      "Ġsenaryosunu": 8570,
      "ĠSec": 8571,
      "ĠDiÅŁ": 8572,
      "ĠÃ¶ldÃ¼rÃ¼ldÃ¼": 8573,
      "ĠKÄ±lÄ±Ã§daroÄŁlu": 8574,
      "ĠsÄ±nÄ±rlÄ±": 8575,
      "\".": 8576,
      "Ãº": 8577,
      "ĠSus": 8578,
      "azer": 8579,
      "ĠÃ§Ä±kacak": 8580,
      "ĠgÃ¶revine": 8581,
      "arsÃ§a": 8582,
      "ville": 8583,
      "Ġolas": 8584,
      "ĠPC": 8585,
      "ĠCopa": 8586,
      "omi": 8587,
      "ĠbaÅŁÄ±": 8588,
      "Ġbina": 8589,
      "Ä±lÄ±ÅŁ": 8590,
      "Ġmir": 8591,
      "ĠRab": 8592,
      "Ġveriler": 8593,
      "ĠMary": 8594,
      "enkul": 8595,
      "ĠanÄ±": 8596,
      "heim": 8597,
      "Ġoynay": 8598,
      "Ġ250": 8599,
      "ĠimzaladÄ±": 8600,
      "ĠyaÅŁÄ±ndayken": 8601,
      "alel": 8602,
      "ĠKoc": 8603,
      "ĠadlandÄ±rÄ±lan": 8604,
      "MD": 8605,
      "Ġmor": 8606,
      "ĠÃ§ub": 8607,
      "ĠYAP": 8608,
      "ĠMÃ¼f": 8609,
      "batÄ±sÄ±nda": 8610,
      "oca": 8611,
      "Ġnumara": 8612,
      "Â»": 8613,
      "ĠÃ¶ngÃ¶r": 8614,
      "93": 8615,
      "jinal": 8616,
      "Ġkere": 8617,
      "ĠBing": 8618,
      "ĠDoÄŁal": 8619,
      "ĠKÃ¶yÃ¼": 8620,
      "Ġbulunmayan": 8621,
      "ĠeÄŁitimini": 8622,
      "ĠHolding": 8623,
      "ĠKurtuluÅŁ": 8624,
      "Her": 8625,
      "mÄ±": 8626,
      "ĠDijital": 8627,
      "yaj": 8628,
      "ĠOri": 8629,
      "ĠKaraman": 8630,
      "ĠÃ¶ÄŁrencilerin": 8631,
      "ĠAmerican": 8632,
      "ĠAV": 8633,
      "ulus": 8634,
      "ĠNok": 8635,
      "ĠEserleri": 8636,
      "ĠYerleÅŁ": 8637,
      "mediÄŁi": 8638,
      "Ġakademik": 8639,
      "desi": 8640,
      "ekler": 8641,
      "Ġbilir": 8642,
      "ĠSn": 8643,
      "ĠalmasÄ±": 8644,
      "Ġniteli": 8645,
      "ĠDoÄŁum": 8646,
      "Ad": 8647,
      "Ġyapabilir": 8648,
      "karahisar": 8649,
      "ÄŁe": 8650,
      "orit": 8651,
      "ĠarasÄ±na": 8652,
      "Ġgelerek": 8653,
      "eff": 8654,
      "ĠsilahlÄ±": 8655,
      "ĠAjansÄ±": 8656,
      "Ġtelefonu": 8657,
      "liliÄŁ": 8658,
      "gcolor": 8659,
      "rÄ±sÄ±": 8660,
      "iliÄŁini": 8661,
      "Ġkalma": 8662,
      "ĠkadÄ±nlarÄ±n": 8663,
      "Ġitibariyle": 8664,
      "ĠÄ°skender": 8665,
      "ĠSonraki": 8666,
      "amÄ±yor": 8667,
      "ĠfarkÄ±": 8668,
      "Ġ1937": 8669,
      "ĠHizmetleri": 8670,
      "Ġvil": 8671,
      "itch": 8672,
      "Ġaraba": 8673,
      "Ġ46": 8674,
      "ĠsÄ±ralam": 8675,
      "ĠÄ°ÅŁÃ§i": 8676,
      "ĠhattÄ±": 8677,
      "yken": 8678,
      "Ġmang": 8679,
      "ĠSatÄ±ÅŁ": 8680,
      "ĠÄ°Ãĩ": 8681,
      "ĠSmith": 8682,
      "Ġbeklenen": 8683,
      "ĠÃ§evrimiÃ§i": 8684,
      "ĠhÃ¼kÃ¼mdar": 8685,
      "Ä°YOR": 8686,
      "ĠKoruma": 8687,
      "ĠJim": 8688,
      "sman": 8689,
      "ĠtÃ¶r": 8690,
      "ĠGeb": 8691,
      "Ġbildirildi": 8692,
      "Ġkemik": 8693,
      "ĠEÄŁitimi": 8694,
      "Ġcer": 8695,
      "Ġmanz": 8696,
      "Ġblog": 8697,
      "irdaÄŁ": 8698,
      "Ġcem": 8699,
      "ĠmaÃ§a": 8700,
      "Äģ": 8701,
      "une": 8702,
      "ĠEg": 8703,
      "port": 8704,
      "Ġkategorisinde": 8705,
      "Ġegemen": 8706,
      "ĠAÄŁrÄ±": 8707,
      "arl": 8708,
      "Ġvizyon": 8709,
      "ison": 8710,
      "ĠÃ§Ä±kmÄ±ÅŁ": 8711,
      "igÃ¼r": 8712,
      "ĠtakÄ±mlar": 8713,
      "ĠanlamÄ±": 8714,
      "Ġdeplasman": 8715,
      "ĠâĨ": 8716,
      "ĠSoÄŁ": 8717,
      "ĠLes": 8718,
      "ĠIV": 8719,
      "ARI": 8720,
      "ĠMakedonya": 8721,
      "Ġnam": 8722,
      "Ġbulut": 8723,
      "ĠyaÅŁandÄ±": 8724,
      "Ġbelirlen": 8725,
      "Ġhaberler": 8726,
      "ĠTopluluÄŁu": 8727,
      "Ġbirisidir": 8728,
      "Br": 8729,
      "fab": 8730,
      "ĠyansÄ±": 8731,
      "ĠDoÃ§": 8732,
      "ĠCin": 8733,
      "ĠbaÅŁbakan": 8734,
      "ĠÃ§aÄŁÄ±r": 8735,
      "ĠDiskografi": 8736,
      "sever": 8737,
      "Ġkov": 8738,
      "asan": 8739,
      "Ġekmek": 8740,
      "ĠAyr": 8741,
      "ĠHerschel": 8742,
      "94": 8743,
      "edildi": 8744,
      "ĠÅŁaÅŁÄ±r": 8745,
      "ĠyollarÄ±": 8746,
      "ĠYakÄ±n": 8747,
      "eyt": 8748,
      "Ġdava": 8749,
      "Ġlise": 8750,
      ");": 8751,
      "Ne": 8752,
      "ekom": 8753,
      "Ġanay": 8754,
      "ĠgÃ¼nden": 8755,
      "ĠÃ¶zellikler": 8756,
      "ĠYouTube": 8757,
      "Ġkazanmak": 8758,
      "ĠalbÃ¼mler": 8759,
      "ĠoynamaktadÄ±r": 8760,
      "ĠKomÃ¼nist": 8761,
      "ĠTol": 8762,
      "ĠÃĸzellikleri": 8763,
      "Ġkamyon": 8764,
      "ĠanlaÅŁma": 8765,
      "ayeti": 8766,
      "ĠiÅŁleri": 8767,
      "ĠÂ·": 8768,
      "ĠBasÄ±n": 8769,
      "ĠUzay": 8770,
      "ĠValisi": 8771,
      "ĠgeleceÄŁ": 8772,
      "ĠlayÄ±k": 8773,
      "Ġtanesi": 8774,
      "ĠaÄŁÄ±z": 8775,
      "ĠAvustralyalÄ±": 8776,
      "ĠNazi": 8777,
      "ĠsÄ±ÄŁÄ±n": 8778,
      ".âĢĿ": 8779,
      "ĠBuz": 8780,
      "ĠPlat": 8781,
      "ĠKaynaklar": 8782,
      "Ġsizler": 8783,
      "ĠYarÄ±m": 8784,
      "ĠaltyapÄ±": 8785,
      "IT": 8786,
      "ĠgirmiÅŁtir": 8787,
      "ATO": 8788,
      "Ġadeta": 8789,
      "BB": 8790,
      "ĠSir": 8791,
      "Ġfre": 8792,
      "ihan": 8793,
      "Ġsanal": 8794,
      "ĠGeÃ§miÅŁ": 8795,
      "akal": 8796,
      "azin": 8797,
      "Ä±mlar": 8798,
      "Ġduruma": 8799,
      "Ġmercek": 8800,
      "Ġbaba": 8801,
      "Ġherkese": 8802,
      "ĠdÃ¼ÄŁÃ¼n": 8803,
      "zat": 8804,
      "ĠVit": 8805,
      "ĠMetro": 8806,
      "ĠÃľÃ§Ã¼ncÃ¼": 8807,
      "ua": 8808,
      "ĠPuan": 8809,
      "ĠNap": 8810,
      "ĠolduÄŁunuz": 8811,
      "ĠsÃ¶yler": 8812,
      "ĠAtlan": 8813,
      "Ġkimlik": 8814,
      "ĠHy": 8815,
      "ĠCy": 8816,
      "Ġsaniye": 8817,
      "ĠrolÃ¼nde": 8818,
      "Ġgiyen": 8819,
      "Ġ56": 8820,
      "erbest": 8821,
      "Ġoyunculuk": 8822,
      "ĠtaÅŁÄ±ndÄ±": 8823,
      "Dev": 8824,
      "ben": 8825,
      "ĠKeÅŁ": 8826,
      "lif": 8827,
      "ĠsaÄŁlan": 8828,
      "Ġtepk": 8829,
      "Ġmadaly": 8830,
      "ĠgÃ¼nÃ¼mÃ¼ze": 8831,
      "DÃ¼nya": 8832,
      "UZ": 8833,
      "ĠBBC": 8834,
      "ĠNight": 8835,
      "ĠbaÅŁlarÄ±nda": 8836,
      "Ġedilerek": 8837,
      "Ġkesint": 8838,
      "91": 8839,
      "caÄŁÄ±": 8840,
      "win": 8841,
      "ĠUp": 8842,
      "Ġ44": 8843,
      "ĠBaÄŁÄ±msÄ±z": 8844,
      "Ġisimler": 8845,
      "!\"": 8846,
      "Ġflor": 8847,
      "ĠÃľzer": 8848,
      "ĠzamanlÄ±": 8849,
      "Ġkurumsal": 8850,
      "ĠExp": 8851,
      "unma": 8852,
      "eysel": 8853,
      "Ġyerden": 8854,
      "ĠUm": 8855,
      "ĠmutfaÄŁÄ±": 8856,
      "mekten": 8857,
      "eck": 8858,
      "raj": 8859,
      "ĠtakÄ±mlarÄ±ndan": 8860,
      "ĠkaÃ§Ä±n": 8861,
      "ebilmek": 8862,
      "ĠÅŁampiyonluk": 8863,
      "work": 8864,
      "ĠkaynaklarÄ±": 8865,
      "ĠÃ¼yesidir": 8866,
      "otosiklet": 8867,
      "elin": 8868,
      "eyerek": 8869,
      "iyorlar": 8870,
      "Ġkadrosu": 8871,
      "1990": 8872,
      "Ġharekete": 8873,
      "ĠtarzÄ±": 8874,
      "Ġakademisyen": 8875,
      "ĠDoÄŁru": 8876,
      "ĠGÃ¶nder": 8877,
      "Ġbulan": 8878,
      "Ġsorunun": 8879,
      "ĠnumarasÄ±": 8880,
      "Ġmedy": 8881,
      "ropol": 8882,
      "ĠVek": 8883,
      "Ġ1926": 8884,
      "ĠKurgusal": 8885,
      "ĠKraliyet": 8886,
      "Ġ1927": 8887,
      "ĠkapsamlÄ±": 8888,
      "ĠGeliÅŁtir": 8889,
      "ĠCengiz": 8890,
      "Ġkayde": 8891,
      "ĠBatman": 8892,
      "ĠDairesi": 8893,
      "ĠolaÄŁan": 8894,
      "ĠHerkes": 8895,
      "Ġplay": 8896,
      "Ã¼lÃ¼r": 8897,
      "Ġokuma": 8898,
      "Ġmevsim": 8899,
      "duklarÄ±": 8900,
      "At": 8901,
      "ĠÄ°li": 8902,
      "ĠCla": 8903,
      "ĠsÄ±rt": 8904,
      "ĠmaÃ§Ä±na": 8905,
      "Ġ@": 8906,
      "adasÄ±": 8907,
      "Ġpeyn": 8908,
      "ĠkalmÄ±ÅŁ": 8909,
      "Ġevden": 8910,
      "ĠKolomb": 8911,
      "ĠkÄ±yÄ±sÄ±nda": 8912,
      "aci": 8913,
      "rie": 8914,
      "ĠKullanÄ±cÄ±": 8915,
      "ĠNar": 8916,
      "ĠNormal": 8917,
      "ĠgÃ¼nler": 8918,
      "iyetini": 8919,
      "ĠiyileÅŁtir": 8920,
      "ĠZiyaret": 8921,
      "luÄŁa": 8922,
      "Ġmaddeler": 8923,
      "ĠbaÅŁlattÄ±": 8924,
      "onz": 8925,
      "ilerden": 8926,
      "chen": 8927,
      "ERÄ°": 8928,
      "TR": 8929,
      "enleri": 8930,
      "amÄ±ÅŁ": 8931,
      "Ġente": 8932,
      "ĠoluÅŁum": 8933,
      "ĠÃĸdÃ¼ller": 8934,
      "Ġgurur": 8935,
      "UK": 8936,
      "Ġker": 8937,
      "ets": 8938,
      "ĠMol": 8939,
      "Ġpen": 8940,
      "ĠolmalÄ±dÄ±r": 8941,
      "ĠulaÅŁabilirsiniz": 8942,
      "Ġest": 8943,
      "eÅŁme": 8944,
      "ĠÃ§ekilen": 8945,
      "ĠsÃ¶zcÃ¼": 8946,
      "tikten": 8947,
      "ĠAday": 8948,
      "ĠgÃ¶rÃ¼lmektedir": 8949,
      "Ġ1000": 8950,
      "itika": 8951,
      "ĠdÃ¼zelt": 8952,
      "Ġuygulanan": 8953,
      "ĠÃ§evresinde": 8954,
      "ĠMeslek": 8955,
      "Ġbesin": 8956,
      "ĠErzincan": 8957,
      "rian": 8958,
      "Ġzorluk": 8959,
      "Ġorganiz": 8960,
      "Ġversiyonu": 8961,
      "ĠZelanda": 8962,
      "ĠSiyah": 8963,
      "ĠbÃ¶lÃ¼mleri": 8964,
      "ĠhakkÄ±ndaki": 8965,
      "icial": 8966,
      "ĠmÃ¼mkÃ¼ndÃ¼r": 8967,
      "simum": 8968,
      "Ġmakinesi": 8969,
      "Par": 8970,
      "Sen": 8971,
      "Ã¶p": 8972,
      "Ġverim": 8973,
      "Ġ1924": 8974,
      "Ġpandem": 8975,
      "Ġithal": 8976,
      "satÄ±": 8977,
      "Ä±sal": 8978,
      "Ġ1932": 8979,
      "ĠRadyo": 8980,
      "film": 8981,
      "ĠkralÄ±": 8982,
      "ĠToprak": 8983,
      "Ġheps": 8984,
      "manÄ±zÄ±": 8985,
      "ĠÃĸztÃ¼rk": 8986,
      "ĠBulut": 8987,
      "akar": 8988,
      "Ġgemi": 8989,
      "ĠMS": 8990,
      "ĠLÃ¼b": 8991,
      "Ġgelmesi": 8992,
      "ĠÅŀer": 8993,
      "Ġkonferans": 8994,
      "Ġolduktan": 8995,
      "ĠgeliÅŁtirme": 8996,
      "ĠSalih": 8997,
      "ĠÃ¶ÄŁrencileri": 8998,
      "ĠÄ°stik": 8999,
      "Ġsisteminin": 9000,
      "gon": 9001,
      "ĠKayÄ±t": 9002,
      "ĠkadÄ±nÄ±n": 9003,
      "ĠÄ°nan": 9004,
      "ĠErdem": 9005,
      "ĠsaÄŁlÄ±ÄŁÄ±": 9006,
      "Ġsevgil": 9007,
      "Ġpozitif": 9008,
      "ĠaÅŁaÄŁÄ±da": 9009,
      "ĠDÃ¼zce": 9010,
      "Ġprotesto": 9011,
      "ilerinde": 9012,
      "Ġch": 9013,
      "Ġdefnedilen": 9014,
      "veya": 9015,
      "DEN": 9016,
      "ĠBisiklet": 9017,
      "ĠyargÄ±": 9018,
      "Ġmesel": 9019,
      "ĠÄ±rk": 9020,
      "Ġbut": 9021,
      "ĠkÃ¶p": 9022,
      "Ġorganize": 9023,
      "ĠTatar": 9024,
      "Ä±yÄ±z": 9025,
      "ĠAzeri": 9026,
      "ĠAtletizm": 9027,
      "Ġtit": 9028,
      "lic": 9029,
      "ĠKomÃ¼nÃ¼n": 9030,
      "Ġmesafe": 9031,
      "kurg": 9032,
      "iba": 9033,
      "ektaÅŁ": 9034,
      "ĠgereÄŁi": 9035,
      "ĠalÄ±nmÄ±ÅŁtÄ±r": 9036,
      "Ġkrizi": 9037,
      "ĠSelÃ§uklu": 9038,
      "Ġbez": 9039,
      "Ġmoda": 9040,
      "uva": 9041,
      "pany": 9042,
      "ĠyakÄ±nlarÄ±nda": 9043,
      "ĠSarayÄ±": 9044,
      "ĠbÄ±Ã§ak": 9045,
      "amo": 9046,
      "ĠbaÄŁÄ±r": 9047,
      "ĠArslan": 9048,
      "ĠTuru": 9049,
      "lamaktadÄ±r": 9050,
      "Ġmutfak": 9051,
      "ĠtutuklandÄ±": 9052,
      "Ġromantik": 9053,
      "Ġegz": 9054,
      "ĠbÃ¼tÃ§": 9055,
      "ea": 9056,
      "ĠÄ±ÅŁ": 9057,
      "daa": 9058,
      "ĠgÃ¶rdÃ¼k": 9059,
      "ĠâĢº": 9060,
      "Ġbr": 9061,
      "ĠBran": 9062,
      "ĠÄ°Åŀ": 9063,
      "Ä±sÄ±ndaki": 9064,
      "ĠkÃ¶pr": 9065,
      "ĠLGBT": 9066,
      "Ġkli": 9067,
      "ĠdoÄŁusunda": 9068,
      "ĠgeÃ§erek": 9069,
      "ĠgÃ¶rdÃ¼ÄŁÃ¼": 9070,
      "Ġdemiryolu": 9071,
      "ance": 9072,
      "ĠOut": 9073,
      "ĠyarÄ±ÅŁÄ±": 9074,
      "ĠÃĸnce": 9075,
      "Ġinceleme": 9076,
      "Ġderecede": 9077,
      "72": 9078,
      "ĠLeon": 9079,
      "Ġhaberine": 9080,
      "Ġsessiz": 9081,
      "ĠrÃ¶portaj": 9082,
      "unk": 9083,
      "Ġdernek": 9084,
      "1991": 9085,
      "Ġsakat": 9086,
      "ĠMuharebesi": 9087,
      "anta": 9088,
      "ĠSub": 9089,
      "ĠFA": 9090,
      "Ġverilecek": 9091,
      "ĠÃĸnemli": 9092,
      "ĠNijer": 9093,
      "ĠProje": 9094,
      "ĠbatÄ±sÄ±nda": 9095,
      "Ġdoktora": 9096,
      "ĠÅŁarj": 9097,
      "ĠChicago": 9098,
      "ĠanÄ±nda": 9099,
      "tÃ¼rÃ¼": 9100,
      "Ġkoordin": 9101,
      "ĠGroup": 9102,
      "Ġdevrim": 9103,
      "ĠahÅŁap": 9104,
      "ĠGem": 9105,
      "Ġalabilirsiniz": 9106,
      "lamalarÄ±": 9107,
      "Ġbahsed": 9108,
      "ĠhayÄ±rlÄ±": 9109,
      "Ġku": 9110,
      "tÄ±cÄ±": 9111,
      "ĠkullanÄ±r": 9112,
      "ĠÃ¶lÃ¼mÃ¼": 9113,
      "ĠLatin": 9114,
      "atÃ¼r": 9115,
      "Ġsahil": 9116,
      "ĠÃ¶lÃ¼mÃ¼ne": 9117,
      "ĠBunlarÄ±n": 9118,
      "ĠMeydanÄ±": 9119,
      "ĠRoyal": 9120,
      "erin": 9121,
      "Ġkilit": 9122,
      "Ġtenis": 9123,
      "Ġdefnedilenler": 9124,
      "ĠPiyas": 9125,
      "ĠBaÅŁv": 9126,
      "Ġtutan": 9127,
      "gs": 9128,
      "Ð´": 9129,
      "ĠBern": 9130,
      "ĠER": 9131,
      "lamalar": 9132,
      "ĠyakalandÄ±": 9133,
      "ozof": 9134,
      "Ġevlen": 9135,
      "ĠinanÃ§": 9136,
      "!!": 9137,
      "Ġvir": 9138,
[...]
